memory_initialization_radix=16;
memory_initialization_vector=
c6f2f6f8dd163b93a2,
d068b97b1b4efb1b5a,
7fec743afc768728ff,
cde53478ed03fffd8f,
d8e8340ffd771b5fc8,
e3ecf458cd03ff618e,
d86ab959a7fe92b4ff,
d1729ffa1c763f378c,
eb63745a37fe3364ff,
ae3feb7b1c7e436d8f,
d17271b92d8ecb45aa,
e63ff93a3c7e8f45b0,
7feb76f95acbff20ff,
d2eab718fce6931b93,
7fe6f35aad0d99ffa1,
e3f1f458fdbe934390,
7fe3f61afc8ec351b1,
e5ebf94ffc768371b1,
e36a7979a7fe774796,
c863f1da4c7e3762ff,
c768b4ba2d8685fe06,
7fe3f55c4c763f478e,
cfe31feffd8f2799b4,
e4673959bdb6df66ff,
c75736fb0dbbfdff90,
d03eb21b6c73fdfeff,
c6e3f4b9ccd56efaff,
d9eaf39a2d7e3b1d98,
d76ff938fc6e85ffa1,
dff05feffade41ff8c,
ae662d98ec7e3f238e,
e46435effd8639658d,
c6bff6f8ed1e3977a3,
d0e8dffb2b56ff1b5b,
d3ec343afc768b29a5,
cde4f498fd0698018e,
d8e8743a6d771b5eb9,
5d6d3458dd0e93618e,
d8699ff9bd3696b7a4,
d1bff4da2c6e3f398d,
6163747a3d263765a4,
aee96b7b2c7e436d90,
d1bff1b92d96cb47a7,
7fe91ffa3c769347b0,
d2ea36f95ad69b21a5,
d26a3718fcee971b93,
d467337a8d0d9749a2,
7ff1f478edbe934590,
d263f61afc8ec353b2,
7febdffa6c768771b0,
5d699ff9bd2e774996,
c7e3f1ba5c763763a5,
c768b4ba2d8e8b4a06,
d363f4fc4c6e3f478e,
d063349a7d93fdffb3,
e3e75ff9bdbedf65a6,
c7d776fb1dbe934d90,
d0f4b21b2c769b4da6,
c763f4b9dcdd72f9a5,
d6ea33ba3d863b1d98,
d76e9ff8fc668b4da2,
55f0749a5ae63f498d,
aee62db8ec7e3b258e,
7fe3f61a6d86376f8d,
7ff2f6f8ed13fd71a7,
d0e8f95b1b86fb1f60,
d3ec34dafc8699ffa4,
cf3ff538fd069802ff,
d8e8743a6d771b5eb6,
5c6d34f8dd2e9360ff,
d869f959ed3692c1a4,
d172b4da17fe433f8d,
ec63745a3d263765a4,
b0e96c1b2c7e436d90,
d1721feffd96cb45a8,
e5e9391a57fea347b0,
d26a77197afe95ffa5,
7fea37191d06931aff,
d467f3ba8d0da347a7,
e3f1f50ffdbea74590,
d263f61afc8ec359b2,
e5ebf95a6c868373b0,
5be9f979ed2e834797,
7fe3dffa47fe3f61a5,
7fe9d2ba2d8e9f4bfb,
d363f51c57fe3f46ff,
cfe3349a7d8f2399b4,
e3e7f979edbedf65a6,
c7d8b71b1dc6934d92,
d0749ffb2c769b4da6,
c73fd2b9fcf58afba5,
d6eab3fa3d83fdfe8f,
d76ef90ff7fe8b4ba2,
e070f49a4b13ff4b8d,
b1238cb8f7fbff24ff,
e43ff61a6d83ff6f8d,
c672f70e9d163b91a2,
d068f97b1b56ff1f5a,
d3a9b43afc86872ba5,
cde4f48ead069ffb8e,
d8e8343a6d771f5fc8,
e36d344e8d0693618e,
d869f959ad3692b5a4,
d17274da1c6bab36e8,
ec3a345a2d23a14fa4,
ae696b7b274bab70eb,
d17231b93d8ecb45ab,
e5e9391a5c768f45b0,
d2ea36f98ad69b21a5,
d26a77392ce691d393,
d466f37a9d096349a1,
e3f1f458fdc69342ea,
d23ab61af7529b51b1,
e5ebf95a6c868374a6,
e2e9f999ad2e7746eb,
c7bab1da4c763d4da6,
c768b4ba1d86874bfe,
d33ab51c5c6ba7478e,
cfba349a7d8f2399b4,
e4673959bdc6dd4da7,
74d7773b0dce934d92,
d07471fb37569b4da6,
7563f499ccd572fba5,
d76ab39a2d863b1c8f,
d76f3918fc66874da1,
dff0349a4ade3f4ae9,
aea3ed8e9c7e39d78e,
e464361a6d863b6ee9,
c6f2f718dd1e3f9094,
d169395b2b4eff255a,
d3ec129b0c9a532ba5,
7fe4d2b8ed0e98038e,
d968b45a6d7ae761c8,
e3ed1298c49e93618e,
d8ea392ffd3696b5a3,
d1f274da3c6e3dff8c,
ec63347a4d263365a4,
ae696b5b2c7e436f8f,
d1f231b92d96cf49a9,
e569391a9c7a5747b1,
d2ea7719aace9b21a5,
d2ea771947fe971993,
d43fdffa9d15974894,
e3ae5298edc2574590,
d1e3f63b0c86c1ffb2,
e56bf95a6c9e8773b1,
e36a394ffd2bff4996,
c7e3f1da5c7e4b63a6,
c72534ba3d8a534802,
d2e3b5299c6e3b498e,
d063349a7d972399b4,
5cbff94ffdc6df65a6,
c757371b1dc6934d95,
d174f1fb3c769b4da6,
c6e3f4aff7fd72fba5,
d76a5ffa4d863b1d97,
d7ef3918fc668f4da2,
dfbff49a4ade3f4b8d,
ae65edb8ec7e3b238e,
e464363a6d8e3b6f8d,
c6f2f718ed263b8fa3,
d1e9395b2b56ff2f5a,
d3a8f45b1cc6872ba4,
ce64f498ed16980f8e,
d8e8b45a7d7f1f5fc7,
e36d3458cd0e93618e,
d83ff959bd369ab5a4,
d27274da3c763f398d,
ebe3749a4d263547a4,
ae692b7b2c7e436f90,
d27271b92d96cf48ff,
e669391acc76934bb1,
d23ff719fad69721a5,
d2bff7399cee9b1b93,
d3e7336ffd159f47a2,
e3f1f478fdc6934790,
d1e3f61afc8a8b53b2,
e5ec795a6cc68b74a3,
e2bff959bd2e7b4b96,
c7e3f1da6c7e5d47a5,
c768f4ba4d8e8b4bfc,
d2e3dffc4c763f4b8e,
d0e3349a7d972798a1,
e3e77979bdc6dd47a6,
c7d7773b1dce934d9a,
d174b1effc769b4ba6,
c76434b9dcdd70eda4,
7fbff3ba4d863b1d98,
d73ff918fc6e8f4ba3,
dff0b49a4ade3f498d,
aee62db8ec7e3b238e,
e464361a6d8639638d,
c6f2f6f8d7ee3b8fa3,
7e3f795b1b66fb1d5c,
d3ec344fec7e8b2ba5,
cde4f498d7de9fff8f,
d8bf1f7a6d771b5fc7,
e3ed3478bd0e97618e,
d869f939ad3bf6b9a4,
7e72b4cfcc763b378b,
ebe31f8fcd2e3365a4,
af696bbb2c763f6d8f,
7ef231b92d8ecdf9a8,
e5e9391a4c7691fbb0,
d2ea76f97ae69b21a6,
d2ea76f91ce3f71994,
d467337a87e59b49a2,
e3f1f478fdbe95f78f,
d263b61afc86c351b2,
e53f795a7c7bef71b0,
e369f959ad3675fd95,
c7e3b1cfcc7e3b63a6,
c768d34fdd8e8f4bf8,
d363b51c4c7639f98e,
7de2f49a7d972398a3,
e4673959bdbedf65a7,
c757f6fb1dbe934d92,
7df4721b3c6e9f4da7,
c6e41359ccd57afda5,
d76a338fdd863b1d98,
d76f3918fc63f34cfc,
5670b49a5aee3f4b8c,
afe62db8dc7e3b238f,
e464361a7d863b6f8c,
c672d438fd1e3791a8,
d0e8f96ffb5bff1d5b,
d3ec74fb0c7e9f29a5,
cee4b558fd069c0d8d,
7fe8743a67faddffc8,
e43ff518dd3695ff8d,
7fe9f939cd3696b9a4,
d172b4da2c6e433b8d,
6063b47a3d263b65a4,
aee96b8ffc86454191,
d1f2319917fbff45a9,
e5e9393a5c6ea746ff,
d2ea5ff97ade9b1fa5,
d26a14391cf6931d92,
d467739a8d0d9f49a7,
e3ae3518e50ea74391,
d2641feffc96c754ff,
e56bf95a6c7e8543b1,
e3e9f959cd2e7f4797,
c76471ba5c763b63a5,
c6ea349a27fe9f4a03,
d36435298c6643478d,
d063749a87ff2799b4,
5c67b959d50bff67a6,
c7d7942ff50e934d91,
d0f471fb3c7e9b4da7,
c7e3f499fce576fda5,
d76a33da37fe371b98,
7fef3918ec668b4da2,
e070b49a5aee3b4b8e,
af662d98fc763b258d,
e463dffa77fe376f8e,
c6f2f6f8dd163b93a3,
d0e8f95b13feff1e78,
d46c345afc868b29a5,
cde4f498ed069ff18e,
d8e8343a6d771b5fc8,
e46d3478cd0e97618e,
d869f959bd3e90f3a5,
d172b4fa1c6e3f398c,
ebe3745a3d2e3765a5,
3ce94f3b1c7e436d8f,
d17271b92d8ecb45a9,
e5e9791a5c7e9345b0,
d2ea36f973c69b21a6,
d2ea36f91cee931b93,
d4e7337a8d093f49a2,
e3f23478fdb6974390,
d263f61afc8ec351b2,
e56bf95a7c868371b0,
e369f959bd36774796,
c7e3f1da4c7e3f63a6,
c768f4ba2d8e8b4bfa,
d363b53c4c6e3f478e,
cfe3349a8d8f2799b4,
e4677959bdb6df65a7,
c71eb6fb0dbe934f92,
d074b1fb4c769f4da7,
c763f4b9dcd1e4eba6,
d76a739a2d863b1d97,
d76ef918fc6e874da1,
dff0349a53ce3f4b8d,
3d65cbd8ec7e3b238e,
e464361a7d863b718d,
c672d438ed163b8e97,
d068b95b2b46fd6959,
d36c12daf5a25b2ba4,
cde4d2f8fd069bfb8e,
d968341a5d7f1f61c8,
e3ed52f8c4b693638e,
d8e9f959ad3692b3a3,
d172b4da1c6e3f378c,
ec63745a2d263763a4,
ad692b3b2c7e414390,
d17231b92d9ecf45a9,
e5e9390bcc725f45b1,
d26a770b7ac69b21a5,
d2ea142b5cee931b93,
d467337a8d059b4697,
e3f252f8f50a5f4390,
d1e3f63b0c8ec353b3,
e56bf95a65a68143b0,
e2e9f959bd2e774796,
c7e3f1da4c72cf61a5,
c725f4ba1d8a5f4800,
d2e3f529ac763f478e,
cfe3347a7d972799b4,
e5673959b50ee365a6,
c7d6d43b150e934cb5,
d074b1fb2c769b4ba6,
c763f4b9ccd56afba5,
d76a339a2d8e3b1d98,
d7ef3918ec66874ba1,
dff0349a4ad63f498d,
ade5ed98ec7e3b238e,
e464363a6d8e376f8e,
fc82007fdfe7dffc09,
fc023fbfa037f00e08,
fd8000607fd817f800,
fe7e40ff804fe009fc,
23f605fe7fc13f9,
2813f1fdfefec0002,
fe81407f8fbfec07fe,
1ffffffbfd023fe03,
4027fe02fe8140208,
27ec0002ff003f802,
47ec000304017f5fa,
28200a05fe01bf008,
fd0080204fd807fc07,
1fe40a07fd7e00dfd,
fd00bfc04fe7dc0ffc,
fc00c0a0400fe81206,
fbff7f5ff02823f9fb,
2813f60404823f5fc,
81208fdffc0c05,
fb8080809008040e00,
febf408fd01405fb,
fcff805fe0200ff406,
ff01c0e070101feff8,
ff80c01f7fffe809fa,
4fdffc06fe0040804,
7ebfc020080bfa02,
201ff202037e40a04,
17ec07f9027dff3fd,
7f813fafffebfa03,
17fe03047e3f1f9,
17f005f8ff7f7fbf8,
fcff3f000fc7f001f8,
3fe3f007fd0100402,
ffff4000002fe7ee02,
2ff405fffd0200dfc,
101401f7017e00409,
ff01813fb047e00807,
ff01ffbf9007f01005,
40080fff017fff605,
37f3fffbfc7fc03f8,
ff81bf0050081c1205,
47e813fafe7f80bfa,
fe80004000002405fc,
fefebf7fd027fff7f9,
3013fe010380bfc04,
fc7dffdfdfd0201203,
4003f603fbfe40403,
47ec0602047f40202,
ffbfffbfe01007f8,
fdfe809fc01fdff207,
ffc0bffff003f9fa,
40040601fd0180fff,
400c08020280bf206,
ffff80602007fff604,
fb81008010081ff5ff,
ff81c0002037f3f1fd,
fd010020801fdc09f8,
fe404060381ff809,
4004100200fe403f9,
fdfe40400037f803fb,
fc01c13f8007e40c07,
37e00df7ff0100407,
fe007fe0003ffff605,
fd018080903ff3f006,
fe81ff20501023fc06,
2827fbff00007f408,
fd023fa0502ff3f206,
fe7f3f608fdfec05fc,
ff81c1209fffdc0406,
fffe00e02fd827f9fa,
200ffffcfe0040004,
fd7ec0bfcfc813f401,
20240bf80081c0fff,
fc01c13fdfc7f3effc,
fffdc0004027dc0005,
fe81c040201fdc0ffe,
400c11f702003fa08,
ff8080803fec13fb,
101806020481813fe,
7fc0a00ff0180c02,
3fe7fdfefdfe803f8,
fe7e3fc09028081005,
101bfe06fbff7fc03,
fe81bf00604813f1fb,
fb80ffc0002823eff8,
ffffbfff9047f80ff7,
fdc0df9030080803,
3ffbfdff02fe7fdf9,
ff00ffa04037e80e01,
80c01f9fe80ff603,
47dc0bf803ffbf7fa,
2fe7f9fd02007f606,
ff7f7fe03fd81c0005,
ff7effff8feff801fe,
fcfdc0402fc7fc0bfd,
fd81ff1f9fc7fc0ffc,
27f7fc0400007f5f9,
fc827ee00ff807f405,
fdfebeff800fd81205,
feff8020404ffc01f7,
100c0df7fb80bf807,
302401fb0001409f7,
fe007f008008240e04,
37f41009fcfe80206,
fefdc0bfe03fe3f5fe,
fc81c0a01fc00bf403,
fe01ffffefc82413fe,
200ffa02ff013fe06,
fe7f80000ff023effb,
fd0240e0000023fbff,
4fec07fd00ffbf403,
1ff3eff8fe7e013f8,
fbffffe03fe00ffa07,
301bf1fd038140dfe,
7f3fbf8fc81bf7f8,
3013ee070200ff603,
fc01803fd01013f802,
81bfbfeff7e7ee05,
ff8200dfefe7e80ff9,
fd00001fc03fdc1204,
fd007f001ff01003fc,
27f401f9ff013fbf8,
ff40bfbfe817fa09,
3ff00dfc03ff3fe06,
3823f9f900827f602,
fb823f405000180bfe,
3007f1fe02013f008,
27ec05f902ffc0ffb,
4807fbf9017ec0600,
8140ff9027f80bf7,
400809f803febfdfe,
47f00e04fc81007f7,
18140402ff8100008,
fe7e807fffc8141004,
fd00ff1fcfe7e7fbfe,
8200ff7018080607,
bfc05fe0100e00,
48040c01fc81c0a04,
37e006030401c0bfc,
fffdc01f7ff8180802,
fc7f409fcfd81ff206,
8000a06037e00c00,
37f40e06fffec05fc,
fc7dc0bfbfdfffeff8,
fcff80a0400ffc0807,
2013fa06018100003,
402407fe03ffbfdfc,
807fe05fc7e7f3f7,
28140205047f3f607,
3007fdfe02ffbf609,
fc0180e03fc027f3fd,
fc02013f8fd0180405,
1ffbfe06ffffc0ffe,
fcfe40008027e005fe,
ff023fe02fc00c0203,
fc0000206feff80006,
fc00c000703027fe09,
4017fdfc020000804,
fb80ff1fd01ffbf5fd,
27e011f9fd8141007,
7f80607fd7f401f8,
fefe3ee060000c05ff,
37fc05fdfdff3f404,
17e3f9fbfd01ff408,
2000000302807f9fd,
2017f7f9fd8100c00,
fe02011fefd80007fb,
7e00401020100ffc,
200ffa01027ec0dff,
fd7e80c03fd7fbfbf8,
28240ffc037e3ee07,
fcff7f600fc7e3fbf9,
400c0a080200c0408,
813f802fe80c0bff,
40200403038101002,
fd81003fb0180ff401,
fe7fbf3fefd01c0c04,
fdfe7effcfd7fc0806,
4008100801ff3fdf7,
fcffc11fa02fdc11fc,
fd0180808fefeff9ff,
fc7fbfffefdffc1202,
fbfe7fff7fcfebeffa,
180c0802fc7f40c02,
400c0001fffdc0e06,
fe000120801fdc0405,
fc813f3f9047f7ffff,
300c03f7ff7effe04,
27e40c060381bf1fe,
17f40dfb0382005f9,
fe8180c01007f7fbfa,
3013fdfe030140007,
4ffffe01fcfec0bff,
ff00411ff007f00dfe,
400809f8fbfe009fb,
fc00ffe01fcff807fb,
27f407f9fe7fbf801,
fe8080a0103ff40203,
1c0803fbfe809fd,
38141005fc7fffffe,
1ffffa03027e40e09,
fdfe00808fc7e7f605,
ff81811f7fe823f409,
47e803f800023f601,
fc0000205fd82407f7,
ff7fff9fcfc0080a02,
fefdff1fa03fe811fe,
2017f7fc01813fe02,
17ec1201feff809ff,
fe0040404feffc0008,
400405fdfc823fe04,
fc01c0dfe02007f5fb,
80bf7f9fcfe7f7fe,
47f7f1f802ff00bf7,
47f7fe08007fbfdff,
4fe40806fe00bf3f8,
1ff80606fffe803fa,
fc017ee07027e40ffe,
fcff800020301403fd,
37f410090180c01f9,
27ebee0204ff3fa05,
fdffc1006007f80a08,
37ebf803fc017f5f8,
1fe80c08027f7fdf7,
4813fdfc047f80dfd,
17e7fdfcfc0040c08,
fe7ebfffdfe7ebfff7,
ff003f3f9fd80bf207,
18000004ff8180804,
381bf0050101ff608,
fdfe00005017dff7fc,
3013fc06fe81bfbfc,
fc7f3fe01fd813f608,
ff7f7f3fdfeff80608,
1003fa00fe00befff,
181c060204feff3f9,
fc7dff200fd8000c08,
fd80ff5f902febfa04,
2017fc07007eff3fd,
3013f2090000803f7,
ff7f3fdfd027e803fa,
fc0100207fe7e7f602,
47f8060000ff00409,
20140607047f3f009,
47eff608fdff40df9,
fefec03ff018140e05,
401ffe05fe81c0e05,
ff7ee06ff80007f8,
fc7dc0007fbfe00407,
100c09f7fc81c1008,
fc817f7fc03ff80002,
fffe3fe040401bf800,
17fc0dff047f40bfa,
fe80ffb040000dfc,
281809fdfc01807fa,
302411fc03feff9fa,
fefe7f403fe7f80dfa,
fd8040806047dc0dfd,
381803fe037e40ffd,
fe8141006fd8000ff8,
3ff7f40601ff80a00,
ffc13f80000813fc,
27fbeffe01fec01f7,
fe81c0bf8037fc0dff,
47ebf5f7018001203,
200c0606fe80009fb,
281bf605fcff80806,
1007f7fc03fe40401,
ff80bfff9017e80ff8,
28200804fc00ff1fc,
feff00ff8ff7e01207,
3827f401fdff3fffb,
fe7e00a0803ffffa06,
fbfe803fe04fe3f3f8,
fb827f200ffffff9fa,
7f80ffa007fc0005,
37ffeffa030040ff7,
fc0180df8ff0040008,
1fe00c05fffe7f5f9,
2fe7f9fafffe3f1fb,
fefec0003fe807f009,
2febf203fb8140c03,
fd01002080202013f8,
fc027fa05ff0100ff8,
fefe80bfd0202401fb,
ff023fe09ff7f3f800,
ff01beffaff81c0e02,
fcfe80ffefc80c0e06,
fc0100c08fe7f40803,
fbfe00df8fe7f7f400,
ff0200204ff00bf9f8,
fc00c0ff800fe01200,
fe8240bfbfdffc09ff,
fe7f80006037fffbfb,
fd7fff0010281fee01,
fc8080202047ebfdfe,
ffff00e02ff80ffc08,
38240e08007e409fa,
fd80c05fffffe7f9f8,
ff01bee0702ff809fe,
fd80807ff028180a06,
ff7e80604fefdff3fb,
fe8200e09fb8180000,
fe7e80e07fe7e7fa03,
fb8081008fe80ffbfb,
3ffffa07030180bfb,
ff8240606fc007ffff,
401811f8ffffbf3f9,
38201205fe00ff1ff,
1ff001f8fd823effc,
fd8100ffdff0240001,
3effa028200e09,
fc7fbf604038240603,
fc81ffffffe8240600,
fc81bfdfd02013effe,
fdfe3f403fefdfee04,
481c0bffff027fa08,
fe00bf807fefdc0df7,
281011f7fe7f3effa,
201011fdfc7ebfe06,
181ffdfbfe8180400,
3013f1f801fe3f607,
fbfe411fa02003f006,
fd81813fdfe8141206,
300ffe02037f80007,
fdfe409fe00827f1f7,
fc80ffc08fc8180a08,
fd7eff404fc7eff1f7,
ff0000ff702ffff1fc,
4fe3f1fdfe8040406,
8200405fcff7fc05,
381c03fe00fe7f205,
17e8060700fe7f402,
bf407fbfe3f5fe,
30100805fbfe40a01,
80803fafe807fe03,
47fbfa06ff7eff5f7,
fe80003017e7f3f9,
fd01805ff038080dfb,
ff003f9fc00823f609,
7f811f9027e7f406,
fbffffdfd00fec05f9,
1ffc060900fe7fa03,
201bf9fefc0000a01,
27fc1005fe0040bfa,
fe3fc0302023fa01,
fe40004027ec01f8,
fe81ffe00037ebf7fe,
ff824020700013fdf7,
fc823fe06ff823fa06,
823f000fcff3f403,
200c0bfe0081bf3fe,
fcfe3f7f9ff00c09fd,
181bf007feffff607,
fc8080408fffe3f007,
1fe7effe037e7f204,
fc01ff5f802ff00a04,
fb8140a090002001f9,
fd813fa08030240407,
ffff7f9fc01fe803f9,
81bf406000080e08,
ff003f6010381805fd,
fcfec05f904ff3fa09,
381bee04fc7e00a08,
281ff9f7017f7fc06,
2807f000fe003f9f7,
200001fdfe7ec11fa,
fe7ebfdf7fe0000407,
fc7eff000fbfebf406,
17dc0202037f80405,
3ffc01f8fffeff608,
401bf3fffc813f004,
ff7fc0006ffffffbf7,
fc01c0409027fc0ffc,
300bf3f9fe7e3f1f9,
fe81ff3fd04fe80e01,
fcfebf609fd0040ff8,
8180dfa04ffbfdf8,
401bf9fdfe027ee02,
7e411feff7e7fe08,
fe003fbffff81bf7f7,
fe7e00608fbfe3fc02,
ff7f80c09fe003fa01,
fe7f408000100811fa,
3feff601028101206,
13fc0302ffc07fa,
48040c0603017f1fa,
40180c03007f811f8,
fdfdff201fcfe00207,
80c13f9048200208,
7fc1000fd7e40a01,
fc7dc1001007e005fc,
80dfd027fbf1fb,
37f401fd017ec11fb,
fd007fbfefcff3fffd,
fe81bf807037e009fa,
ff7e7fe09fe81407f8,
fc02407ff04017fffc,
fc00409fbfd01bf607,
fd7effbfe04ff80c02,
fd02009fffc7fffc02,
fc8000dfd0100411ff,
37dffdfefd7e3f400,
30240a01010100005,
481c07f903feffff8,
27f3f3fffc81403fc,
fd7f0100300ff81006,
fdfec0001ff8080dff,
fd003fbfbfefe40bfb,
37f80c08fd80c0408,
37e80dfa027fbf3f8,
17f3f4060080c0003,
fbfeff1fd018080e08,
3823fa05fc8040e06,
8181007047e40a07,
2027f1fa04017f609,
280c0bfdfc0080c00,
17f81008007dfee06,
3013f002fffec0ffd,
ff7fbee02ffff40a06,
fc81013fb0200bfa04,
30041000ffff80c00,
fc7effffcfc7fc1007,
ff01c13fd0181c1008,
181c0ffc007e00c02,
3ffff203037e80409,
280c0006fd0001202,
30080606fe80801f9,
fb8001207fbff80609,
fc8040dff0081bfa08,
fefe80205fb8000c00,
37e3f7fd020040dfb,
3f200007e80c03,
27fbf3f8fd007f9fa,
fd00c07f901ff7f803,
fd7f4000000807fffa,
fcff3f9f7fe7ec0209,
fdc05fbfe027fbfe,
1fec100801ff3fc07,
27f804048140609,
80bf209fd7fc0201,
ff8201008fe823f9fb,
37ebf605feff3f204,
ffffc0dff007f7f804,
2017f3fefd7ec13fe,
3fec040602007f005,
27e80ffbfe7dc0e07,
100001fefd00811fa,
2813fc04fd8140df8,
fe7dff801fffe413f9,
1ff7f9fe0101bf608,
1003fc05027dc13fe,
fe80007fcfe7ec0009,
fb8200c09fd80c11f8,
ffff407f8fe823f9ff,
100006040300bf006,
200ff1fa047e40ff9,
fd8140e01fcfdffdfb,
1813effaff00bf202,
fdffa0803023f200,
fcfeff603fdfec1002,
813f9fefbfe801fe,
1ff40e02ff01bf006,
fe7dff9fa01007f9f8,
fd80401fcfdff007fe,
2fe40e0401ff413fe,
fe013fdfcffff7fa01,
47e80c04fe80409f7,
37effa01017effdf8,
17e3f1fb047e003fe,
fd8200ffb017fc0601,
7fc0bf7fe7f3f1fd,
200feffdfbfe3fe07,
fcfe3f204fbfe3fe04,
4ff7f7f703feffa07,
400ff807fc80003fe,
fefebf00203fe3f407,
17fff805fd00ffbfd,
fe00bfdfbfe7e80c00,
4fe3fbff00023f3fd,
180bf7f9ff8080bfb,
2ff7f3fefe003fa01,
fd7fbeff7007f00ff7,
47e40203fffebfff9,
fd8180401fc7e80bff,
fffe80a00fb803f803,
38000a04018180401,
2fe3f007037ec0402,
ffa03fd7ec09f7,
fd7fc01fd047f3f800,
fc80bf0030100c03f8,
7f013fc01003f7fa,
2803f00000fec0bf9,
fcfeffbfe01ffc0bfe,
17eff3f9fe00bf9ff,
ff7ec09f80380807fa,
fd813f200fc00001fe,
27e00206008101201,
17fff5f9fd01801fb,
fc8140005fe817fdfa,
101c1006fe7f409ff,
823f1f8fcff00dfa,
381c0a02fd81413fb,
1ffc0805fc8140fff,
feff80800ff7dffbf9,
37fc0002fb803fffa,
ff7e3f003fbfeff201,
fcfdffbff030180606,
3fe3f601000000ffb,
1feff6000180809fb,
fd817fdf9fd80011fd,
fcfe00dffff7f41007,
38180ff7fe8080fff,
ff7f00007fd023fa08,
ff0180c08fdfec11f8,
3007f00000ff3f407,
1fe40603fe007f9fe,
ff7f8080100817fbfc,
281bf3f9ff8100204,
20140c0100febf605,
10200a0402817f1fd,
8100ff9fdff00403,
fe00bfbfd01ff3f9ff,
38200ffe017fc1004,
fb817f205fe803f1f9,
7fbf5fffc803f3fd,
fb808040902013f003,
fe80ff9fdff7f3f3f8,
38241204047e3f805,
ff7e00e08ff7f7f608,
7f7f200028140603,
fdffffa03fd80ffe04,
fe7dc0ffb0000007f9,
fd7f7f9fe0200c0007,
ff80c0a07fe00bfffa,
fe7f40df8fbfeff401,
37e4100200007ffff,
fbfebf601fdff3f7fa,
fc80c06090200bf200,
fb81bf400fd027f5fd,
fdffff7fd037dffc06,
17ffeffefd7f413ff,
fd00411fdff7e3f3ff,
fe7fff003fbff40c01,
fe7fffbfdfd7ebf808,
fc827f6050200ff3fc,
fc017f6080001001fa,
301c03fbff013f7f8,
fefebfe0800fec0bfe,
ff8000c05037e3f002,
fe40bfbff7e40a08,
fe020020203ff7f803,
1febf207fc023fe01,
fd00bf400040140c01,
401bf20601fe3fdfa,
fdff7fbfe017dc05fe,
fbff3fffa01ff7f600,
81806060201ffbfe,
37e40bfefe7effa03,
10000e0202007f7ff,
fc80bfbf9fefebf200,
fd00c0e08037e813fa,
201ffbfefd7fbf205,
fd023fe0900807fdfc,
fcffc01f8027e813f8,
181005fffe80bf5f8,
ff7e011fb027e7f406,
13fcfc0140dfb,
380411fd0280c0c07,
27f7f7fbfefeff5f9,
18180009000040ff8,
47e411fcff0000e00,
202005fd028101003,
ff7e80c07ffff40809,
4807f401027dc01fe,
fe7e80801fdfe7ee03,
bf209fcff80801,
fcfe0100704817f402,
fcffc0ff9fe027ee04,
401411fe007e41201,
380ffa08ff80c0e06,
fd01ffff9fdffc09f9,
37ebfa06fd017f802,
101bfc0704013f800,
fd003f3fcfc023fbf8,
ff013f8020081403f7,
301bf000037ebf805,
7fc0ff7007f00ffa,
37eff5f9fe00ff007,
281c1006ff0041005,
201ff9fbfe81bfbff,
47dc0c00ff023fbfc,
fcff407fd0380401f8,
181003fe03fe81006,
100c040101807f5fe,
fe7e7fdfd02fe80a06,
fffe407faff7e3f807,
180dff0300ff3fc,
282409fe02fefeffe,
3023f801047e411fc,
301001fe00ffff9fc,
fbfebf3fbfb8100203,
ff8200bfcff01ffa08,
fe023fc04027effa04,
fd81ffa0804803f004,
ff803f9f704803f601,
181ff9fffd803f1fa,
fc813f405fc80411fd,
ffff401ff8040bf7,
37e7f607ffffc0df7,
2fdc0e0304ff7f201,
3803f5fc047f7f806,
37f7f1f9028001008,
7f80e0404fe00a09,
fd7e40a04fcfec11f9,
fe81c05fdff8201209,
37e80dfb00fec0a00,
7fc09fdff01ffffc,
180411fefd7dc0dfb,
fc0140807ff00c0bfa,
fc0180a05fcfe80ff8,
ff827f009ff0041008,
3fefeffa00007f3fc,
27f3fe07ffffc01f9,
1fdff1ff01ff005fd,
fe7f40ffa008100000,
37ec0c07ff7e7fff8,
100ffbf800fe003fa,
37ec0002ff7f011fd,
1003ee02fe80405fb,
fd7e40ffcff01c03ff,
81c13f8fd7f3fdfa,
ff003f2060181feffb,
fffeff5fafffe80e03,
3ff4020002febfc03,
fdfec0a0302fdc0006,
fdfeffbfc01817f402,
1bfc08fcfe7fc04,
fc0040c07fefe80ff8,
fe803f807ff01c0df8,
27e7f601fd01c0dfc,
ff027fa02feff7f008,
feff411fdfc02005fb,
37fff9f7020180a05,
fbff3f3fbfd81003fc,
fd817f5ff017fc0606,
47e8100203fe00bfd,
ffff405f7fc01407ff,
fbff801f90301ff005,
fe027f2080381ffa07,
fb803f60000ff80df9,
fc813f202fffec0ffd,
280ffe03fd7fc1006,
1ffff008fd7e3f5fa,
fd7e409fd008080c01,
fd81bee01030080bfd,
3ffc0802037fff002,
10180a0403fe3f208,
81bee05fc0100205,
fe00bf5f801807ee03,
10240dfd007e3f601,
fc81bf9f904ffbf004,
fd817fc03fd02407fb,
fcff40a0203fdff203,
3fec07fa008140a07,
27e40a01ff827fc04,
4007effdfc00ffe06,
fe807f9fffeff3fa07,
37eff3faff01bee02,
20080c0902febf9f8,
827fa04017e3fffb,
200c09fcfc7f3fc08,
4023fdfa04fe40003,
fffeffe01007e3fbff,
fd023f20603817f5fd,
fd0100dfc03003fbfc,
481001fe01febfdfc,
fc813fdfe017effff8,
27f811fefc01007fc,
ff01c1009017f7f004,
fd7e40006fdfeff201,
fb823ffff02ff7fffb,
fd8140bfc028000ffe,
ff80ff00303fdff009,
2ffff9f9007fbf1fd,
ff7f7f80300fdc0206,
fe80405ff010100a07,
fe407f804813f3f7,
2ffc0a030180805fc,
fdff411fcfb803f203,
ff0240c06030100c00,
ffff40200ff00ff609,
fcfeffbfd00017f403,
27e7f5fdfefeff800,
17f40604fe81c0c01,
180801f8027e40005,
fdff005fafd7f7fa06,
fd827fc0700fe7f3fb,
fd7f7f603fe7fc0ffb,
1fe81207fc003fbf7,
18240e05ff0240ff9,
fc81403fafc0141203,
180bee00000040405,
2febf1fcfffebf400,
fe0140bf7ff01bfffb,
c0ffa0181ff604,
fdffc0009ff7ebfe04,
3fdfffeff40803,
400c1204027f3f407,
302003f700feffa07,
fe7e01008fcfec0006,
300bf2010201c11fb,
17fbfa0100ff00c09,
27fbee04fefebf603,
7fff1f80301c0c04,
fc8200ff7fc0001002,
27f407fbfd0240bfd,
fb80feffffcfeff9fd,
fefdff1fc027fff1ff,
fffec01fffe013effc,
ff7ffeffb007dffc07,
47ec05f8007effff8,
17e0000001ffc0ffc,
fe807fdfb017eff609,
17f7f005ff8040dfe,
3003f607fc7f41008,
28180007047e80dfb,
7effc00fe7e00809,
27f01000007ebf5fc,
fc823f207fc0080005,
1fec0a08fd81bf805,
18240a08ff0000c00,
8100a06037e7fff9,
ffc1200fbff80fff,
4807f3f8000201203,
ff8240604fe813f602,
4ff8000401fdc05f8,
1ff609fd8140208,
fe81ffe00fd8000805,
fe817f80300fe3f5fd,
ff0200602037ebfbf8,
ff81ff3fd02fe3f1fa,
300c1000017e413f8,
ffff813fcfe0140200,
fe823fbff028040bf7,
17fc12010301c0208,
fd0200bf8028180605,
180ff406fc817f606,
fe7fffc01fe413fe,
27ec0dfd02003fa03,
100ff60504823fe07,
fd7f80200fcfe3f7fc,
18100600fd00ffc05,
ffff80dfe007f7f803,
fd0180a05fc00bf408,
280bf600fd013f806,
7f007fafbfe3f7f8,
fb820000200ff81209,
400ffa05ff8040400,
ff7f3f402ff0100c08,
1807f406fcffc05f8,
18200a0902fec0605,
fe0201008ff81801fd,
fdff3f60300febeffe,
38080c000480c0003,
fd7e00801feff80803,
38000a01fb80ffbff,
fcfdc0404fc0000ff7,
2007fe030401bf003,
ff003f3faff80413f8,
fd807fc07040180c00,
fbff80000038100e08,
1027fbff017fbf607,
ff01ff9feff8100e06,
fe8140e02fb81ffdfa,
fd013f20001fe007fe,
fc810060500023f801,
281c0e0204ff00bfd,
fc0140001fc013f3fd,
7e00606017ebf1f9,
7ebeffe04fe7f608,
fe01009f902feff000,
fc7f3f800fc00bf7fb,
fd7f40a00047f41009,
3027f600ffffbf1f8,
8100007fd823fe02,
fe81813fd01003f409,
ff80811fe007f3fbfd,
fe0080a08fdfec0001,
ff7f407f700ff809f7,
1c05f7007f40209,
ff40e04fc01beffe,
fd813f20302ff81007,
481009fc04003fe06,
2feffff902fe007f8,
401fea07fd7ebfa06,
401811fbfc01c01f8,
401c1209028081006,
ff0200dfd0001bf408,
1fe007fd020000805,
3ff40401fd7f801f9,
401bf607fcff3f605,
4007fbfeffff40c02,
fa813fc08030100a01,
2803fdfe03fec01fb,
2817f3fc007f3f3fe,
3fe3fc0100ff3fe00,
2817f205030000402,
fcffc0a05fcfec1207,
4fdc0a03ffff7f1fe,
37eff00600017fc02,
fefe7f600037f3f806,
3fe403fc030201206,
281ffc03fe8141003,
ffff00bfd037ebf1ff,
fe0100dfdfcffbf008,
fcff003faffff3effd,
fd827f00101023f205,
482009f6fd7eff3f7,
3023f609fc01c09fd,
2fe4000304ffbf804,
ff7f009f8017dc01f7,
23f1fe017fff600,
fb80c01fd038100ffb,
17dffdf70280803f8,
fe823f2010080813fc,
3fec0bf9ff81001fa,
47f405fd008200208,
7fc05fafc01003fb,
1003fa060402011f8,
400feffd0381c0001,
ff7dc0c00007f7f801,
ffff00c05fe823fdfb,
8180208028140dfe,
ffc07fffb807fdfd,
200a000300ffa04,
fc01c03fffffdffe06,
1fe3f3fffb803fffa,
ff7f7fbf9fe7e7f006,
27f40dfefe0200605,
fbfe7f9fc0380411fc,
3803fa08fe7e7fe04,
ff80ff1f7ff00bf606,
300c0a06018080803,
47f3fc06fcfe803fa,
fe7f001fefec0bfd,
380ff9ff027f411fd,
17f00003007ec15f9,
fe007eff7fc807f203,
3fe80bf7fc80bf005,
827f1fa007d80df8,
ffff8000403fdff5fa,
fc7f00a070180c0dff,
37e405fe03ff3fbf9,
101c0c05fe00ffbfd,
17e809fefcfe407fc,
ff823f608ff01c0c08,
fe823f00701827f207,
ff8200404ff80c03fa,
4813fdfafbfe7f601,
fd7f811fa018100608,
3813fa05fb813fbfa,
1ff809f8fffec09f8,
8100601ff7f802,
401fc00ffffbf9,
48000400027e7f604,
fb803ee0603fe40ffc,
fc013f1f80081ff604,
240e0200fe40bf6,
ffc0209ff01809fb,
feff3fffefd8000406,
ff007ee08fe7fbea00,
fc01c0006ff0000801,
fe7ebf3fc04fe40203,
fefeffa038100ff8,
fd8240a000201c0602,
fc81bf404fe7f80c02,
fd7fbf002fd00c07fb,
fd8140000030080405,
27f7f7fcfc013fdfe,
7f3eff7017efeffb,
47f7fff904fe7f7f9,
fc7dff40201813f203,
28100c06feffc0003,
803fc030100fee03,
381c1004fbff3f5fa,
8180c05ff7e7fc02,
fb807f602fd7fffc05,
fc823f1fafdff801fd,
501bf40103ff3f1fa,
fd0200bf6fbff80a05,
47e807f901807edf9,
7eff3f90100bf5fb,
ff7f3fc00007e7f3ff,
30180804008200e03,
3803fa01ff7effc08,
3efff01fd805f8,
402c060304fdfeffa,
803fffdfe7dffe04,
fe7f401fd040200802,
fcffc0009fe7fbfbfa,
200bfc07fc7e001f6,
2827fbf2fd0300608,
10000004fc023f001,
ff81417fc00fe7eff9,
fc7e80bff017e80e05,
3ff3fa07fc7e7fbf9,
fcfe40203fcfd80606,
37e40bfe0081ffc04,
fc01c0602ff823f1fd,
47fbf5f904ff3f7f3,
fbffff004fbff01803,
ff81c05fd04013f808,
3003f7fe000100000,
200803f7017c411fa,
27fc0402027f405fb,
1007ffff047e80e04,
fffec01fbff7f41607,
1ff3f403fbff0040d,
fb7d00ff3fdfeff3f8,
805f9fb013ee08,
ff827f5fbfc7e00403,
401c11f3fc027f208,
fe813f40000817f405,
27f80606fc0300202,
fefe411fafc7e403fa,
fc7f80402fc00ffe06,
7fc0ff8fd7e009f8,
201c0ffd02807fdfc,
48100ff9fd7ebfa05,
1027e40001fe3fa00,
fb80be201ff81c07f7,
ff7fffe0702ffc0df7,
fb80ff7fafdffbf9fd,
381009fe027fc13f8,
80bf803007e3ee00,
fe7f4060c0201c03fc,
3fe3fc0703ffc07f8,
ffffbfc000281c01f9,
300001fe007dc1203,
27fc01fa0180001ff,
ff7e7f5fdfa817f3f9,
180bec0501fe409f2,
10000003fe0040dfa,
2fe00205fc7f3f203,
100c05fafc827f5f8,
faff00ff501fe01209,
fd007ee0201817f401,
fffec01fc010000606,
47dc0df8ff823f7f6,
fefebfe04fd00bf607,
fb7f407ff007e7fffc,
fe7ec0a07fbff403fd,
2fe7f208fbfe7fa03,
ff8001001f97f807f9,
fc81bf80c00feffff6,
ff80c0c01fd008040a,
380ff7f9fc8100a04,
20180401fb8141006,
fe00bf202fc017fff7,
820000702fe7fbf0,
fe7f8080103fe411fe,
37e7f1fafc007f1ff,
fe00bf1f80380405ff,
ff7fff7fd007f00c02,
2fe3fbf9fd8100806,
fe80409f10101bee07,
501bf406fe81003fc,
ffff0080904ff3f5fc,
fc01ff5fb03ff7f5f8,
381801f6fb017f9fd,
fc0040805007ebf400,
27f00603ff813f603,
fc7effe00fb7eff406,
ff7f001f805ff40dff,
fe80bf3fc017dc0df8,
1003f20801ff3fbfa,
280807f9037e7fc03,
fb813f5fe007ec0803,
30140804fcffff203,
17dbf609ff7c413f8,
37f001f3ff0180bf5,
fe0000008fe823fc01,
faff409ffff7fc080a,
37ec09fafefec1003,
3813f8010302803fd,
1013f7fdfd817f406,
feffbfbfefefdbf5ff,
1004080001007fdfb,
27d3f7fa027e3fdf8,
fcfe7ee03fb8081003,
fc013f9f9ff00ffdf9,
ff013effdfe0080603,
7fc13f902fdfefff,
2fe7e80600ffff800,
fa013f5fa02007f3f8,
fd014000601fcbeffd,
fc803fbfafd807f7f8,
1ff7f0038080df8,
2005fdfd817effb,
180bf5fe01813f204,
1fe40ffd017e40802,
ffbf80102fdff3fd,
1807fe01ff80ffc08,
4fdff3fc03feffff9,
1ff407f9fcffc0405,
ff7ebf9fafe80c0202,
17d3e7f6fe7cff1fb,
7dffff7fcfffedff,
20100df9fe007f805,
2fdbf3f704007f7fe,
fc027ebfafc013f005,
ff7dc0604ff80001fa,
fd7e807f7ff7e80805,
30040a00047e80a02,
17c40df003003f3fd,
fcff009f7ffffffe04,
280c01fdfc02013ff,
fd7e003fdffff7f600,
ff7ebfa070281bf405,
fd00fee05fe80009fd,
fe7dc0bfc00003f802,
fffe402000180c0ffd,
100409fe01fdff800,
2007ee0002813fdf4,
fdff7fff901fe009ff,
ff7e7f3fd027d011fb,
2017ec040101c0807,
47f7f7f8fb8000204,
27fc0609fc80ff804,
300c13ff008141004,
ff827fffe02827edfc,
38140601fd7dc0e04,
fffe7f5fe000080207,
fe7ebfbffff0140bfa,
fcffffe080401405f9,
fc023fc080081bf3fa,
380c0dfc008040605,
ff1f9008080df5,
37e7ec04fe7dffbfa,
ff027f7fafe017fff9,
2ff811fc008140809,
fd01ffff90180001fc,
280c0a06fe81bf408,
ff80c05fb8041001,
fe8140a01ff00bf5fc,
fffe7eff7fd817f402,
fefeff204030140bf7,
fc0180804ff007fa01,
fd81c00020300ff7f8,
301ffbfbfcfe411fb,
fefe3f1f7fdff401fd,
fe8101401fd7f807fc,
200feff7038080fff,
fc027f607ff013f403,
4017f3f9017e007ff,
2febee06fffe809fb,
ff7dff803fc81bf002,
1813f7fbfe7ebfdfa,
feff7f5f8ff80ff9fa,
380ff7f7ffff80e01,
20140201fa817f7f6,
1fe7fbfd007dc05f8,
201003fafcff809fd,
67ec0600fcffbfbfb,
1fe80400030080bfb,
fe7f405fd00ffc0c03,
fffe411fcfdfd3f801,
ff7e7f9fefe007f006,
181ff1f8fc7ec0ffd,
20100605fe00005f9,
27ffebf9fd7d80206,
1ff811fc02ffbfbfd,
ff81c03fb02fe00600,
10100ffffd0080bfb,
fe807f7fa000081002,
fb813f402fdffff804,
fb0080a03007ebfa07,
fc01bedf70381ff808,
9f7fc7f3f5fa,
fcfe80dfdfb80bf406,
fc8180a020100407fb,
17fc0400fd7e3f404,
fb807edf902fdbf5fc,
fb80c1605fb01ffdfa,
ff01bfe01037d40bfa,
ff8141003fffe3f601,
5fe801f9fd80c0bfe,
47f005fbfcfeff200,
813f7f700febf1f9,
201bfbfa017ec13f8,
fb01be402fd017f3f9,
fc0000808fe803f9fd,
fdff407fcfa7f7fbfe,
fd7f00400fd817fa04,
17edfd0380bfdfc,
1ff40a03fd81407fc,
ffffffc03028040602,
fe0201202017f3fffa,
fd7ec0800ff7f7f202,
fdfeff3f80101c03f7,
1817fc04000100801,
fe7e7e7f703813fc01,
27ebe607fbfdbfffb,
1fe40bf8047f003fe,
fc7dfee06fefe401f8,
47f7f9fa02fe009fd,
fc7f80402007d80802,
fdc11ff0380ff3f8,
ff817f1f7fe7f80c00,
2014040203017fffd,
7e7fe02fe81c09f9,
fc80bfdf7fc7f7f9fe,
7ec09f8ff7ec0bfe,
ffffffffafa7e80800,
fc01ffc03028140e01,
3fe7fbf9fcffbf600,
fc7dff1fd0400c0402,
37fc09fc0080c0e04,
fc00bf401fd0140207,
182005ff02ff3f7f4,
ffbff02017f406,
401feffeff7e40200,
fe7e801ffff00c11f6,
ff8280c01fcffc07fd,
7f7f5fa02017fc06,
7fbf9fafc00bf5f9,
fe01811fe0001bf607,
fdfec0bfdfc007fa06,
ff7ec09fd0101ff5fb,
37f001fa047f815f8,
fffeffa06fbfebf9fb,
fd0001205fc003f601,
280ff607fbffffc04,
30140a05047e3f9fb,
fc0180401ff7e01207,
27f3f6020180bf603,
381807fafeff80600,
fdff7f7fc010080804,
fe40605ff7fff802,
ff014000a02ff00a07,
400ff0040080ff9f7,
fd80c0dfcfc007fa0c,
fcfec0c0603fdc0801,
3ffc1004fc7e409f9,
2803effbfd01c0df7,
fe8040a01fa81bfa06,
fcfe7f402ff7e7fdfe,
fc7f001fe0001007fc,
17f3f605fc00ffffe,
fd81c0606feffbf206,
fd0040206fe01bf401,
17f7f403037fc0c03,
10180e06fc823f3f8,
fcffbe9ff027f405fa,
7fbfffb047e413fc,
fe0140e06fe00c01f7,
fb7f805f900023f9f6,
30201004000001005,
ff7e00a08017eff9fc,
7e003ff017fbf007,
ffffbffff047effe08,
1814060002fec0a01,
2ff00bfafcfe005fc,
fc7ebf402fe00c07fc,
8200e05fb8281002,
27e001f7fdff00404,
fbffc05fbfc7f017ff,
301bf5fffe00803fd,
201c11f7ffff80800,
fd81801fffd7fc1605,
fb807f40103ff3f801,
27e00ffefd7fc0200,
47fffc00fc80ffdff,
fe803fe00038040e0d,
fb81407f8017f80dfd,
7e809f8fe003fa07,
fefebf1fa00fe41006,
fffe3f9f5fc7f809fb,
ff81fea04fd80ff7fe,
fdfe40e010082c0602,
681005f80080ffdfd,
fcfe7f3f8fb7effc01,
4fe811fefd0000dff,
1ff40608ff01407fd,
202011f9fdfdffbfd,
fd0200209fc7dbf1fd,
80ff1f90001ffc05,
ff7fff602ff80c0407,
fd00bf5fe027f80ffd,
fd81013fb04febf002,
ff8200009ff8140a04,
fd004100302ff40e02,
fdfe7f7fffdfebf7fd,
47f403fefe807fbff,
fc82401fafdffffa02,
fd8180dfe0400bf1fe,
3807f7fc038140000,
fe7dc03fc050000405,
4007f005fd7e817fd,
3ff805fbfdfe80601,
fc003fc02ff027fffb,
ffff013f801fe7fbfd,
202009ff0301c01fa,
ff7fc01fc017f80604,
27f81002feffc15f7,
4febf1fb01ffc05ff,
fb0040a06047fff807,
fd0080006fc007fe03,
1fe403f7fd8200808,
fffe801f5fe7e40bf6,
fc023f807fd00bf9fe,
10200ffaff80c0a04,
100000010201feffc,
fc007f7fdfb81001f7,
fdfdc000803017effb,
fc7e813fefd7f80e01,
4040903fe80601,
17fbee08fc817fbfc,
30140205fe00ffdfb,
fd00809f70000805f6,
fd00be9fafffe40c03,
fb8200dfb0401feffa,
fdff7fdfdff7f3fa09,
fd81bfc05fc80405fe,
fc7ec0608037e00dfe,
fdfe3f805fd7f813f9,
1027effffc0040dfb,
300bf20101ff801fe,
1807f4000182bf3ff,
47dff2060401ff7fb,
280bfff7fbfeff606,
180c0005fd8000a00,
40100603fbffc0dfa,
feff1f8fe7dc0a05,
feff7f605ff7f00802,
fc7f3fbfcfb807f1f7,
fd80bf5f7fe813fa08,
17e7fc03fc7f7f807,
fc7d401f800fe81001,
41205ff013fdf7,
7e805fafe8200bfc,
fd7ec16030200bf600,
380803fdfffe7fe02,
ff405fffe81bf3fd,
1fe80c08fd7fff1fa,
fefec0c07047e80df9,
7fc1200fd8100206,
181001f9047e001fa,
4ff80bfb047fc0bfc,
fb8000600008000c08,
80003fc00fe7f001,
2fe40e0602003f602,
1fe7f200fe00bf401,
ff007f5f6038000e02,
fffe004040080c0409,
fd82003fb0480809f9,
4810000204ff3f7f8,
fcfebf008007e41204,
fe827f3f70280c0608,
fd7fc0dfe017f3f7fe,
fbff3f1f80080c0c00,
fe40a07038000bf7,
80c060802ff40a04,
181feffe00feff3fa,
2807f003027e40a02,
fe7e3f607ff807f205,
fc01401fcfc7ebf001,
401bf2050400bf609,
fd01005fa047f40dfc,
fdff1fdff7fffffe,
141200fd7f3f603,
fdff80a05fe00ff407,
380ff6080102403fe,
811fefc81ffe07,
fefec09fb01ff00204,
fe8180a02ff0180609,
ff017f9fc047e3effc,
fffe001ff0280c0408,
fc0201004ff7f7f002,
827fa01ff8000fff,
7f003f8ff7f3f9fc,
ff7ec02fdfe40600,
fe7e80600fd81409f9,
4017ee04ff8000bfa,
feffff603fb0040407,
3ff811f80281c03f7,
1411fe020000df9,
301ff203fdffc11fc,
37f811fe02803fdfd,
2fe805fe017fbfc05,
7f80bfb03803ee02,
ff007f1fa0101c0ffa,
18240601fe81bfffd,
fcfdc09f8fd80003f7,
37fc07fafe01411f9,
fc81bfbfa0301bedf9,
27fff1f90200ff9f7,
481ffbfdfe7fff7f7,
fc807f805047fc07f8,
1ffbf004fd01411fb,
37fbeffefcffbf203,
4823f1f9fffe809fe,
37fc0607feff00df7,
20040403fbff80a06,
2ff00400fd003ee06,
fdffe07fc01c0a02,
ff7dc03fe027fff606,
3823f6090081bfbf7,
7fc11fd0381bfff9,
fe02409fe000240804,
fd7f00a040300ffbfb,
380c11f900fec1000,
17ec020002fe7fe06,
47f00dfb0080811fe,
7ec07fcfd803fc06,
fffec0c000301011fb,
ff0200e00fe00ff9fe,
4fe805f90480407f9,
ff80bfa0501ff7fa01,
fb807f1f900003eff8,
7e7fa0600fec0e00,
fdff8100701ff00401,
4feff9fcfc7f40008,
ff7e3f1fe027ec03fd,
fefe8040501fec01fa,
ff7f7edff0301c03f7,
201c1006027f7f5fa,
7effc050482401fa,
201ff1fc020000000,
fc7fff5fcfdffbfa09,
fbfe40a07fcff413fa,
37e40bf7fe013ee08,
200c0a000201c01fd,
fd807f7f70000c0603,
101bf208fd81c13ff,
181205047fbfa01,
47e00a0202fe407ff,
fe817f1fb02fe811f9,
10040dffff817f5ff,
feffbf207fe7ec11f8,
ff80ff400000240601,
20100003fefdc0801,
ffc0400017fc11fe,
18040400fe8240008,
ff3f604fc0000404,
1827f805fe7e40204,
fd7fc01f902ff40bfc,
fd7e7f001047e007f7,
fc023fdfd02fe40001,
30001207020200805,
ff0100bfe02023f1ff,
fdff3f205047eff9fa,
fd7dc0df7ff0001006,
17fff006fd0100dfc,
feff80205fdffbf3f8,
fd80bf806047f80e08,
201c07f9fc80bf809,
ff411fdfc823fa00,
fc7ebf601fc80ff808,
fcfeff8070381ff605,
4fe407f90380011fb,
7effdfe000080bf8,
ff013fc08020181007,
3007fdf8fb803f9f8,
27ebf3f9010180802,
37f8000900ff80e01,
fd7e80dfd04023f608,
38181001fc01c0df8,
280bf9fcfd80ffc05,
3fdff5fafdfe3fffd,
fe7e3fe05ff027fdfa,
4007f208007dc13fc,
fcff40201fcffff804,
fcfe813fa04003fa00,
fcfdc0807fd01411fa,
fcfdc0600fc7f005fe,
481008040301ff5fd,
1017f3fdfeffffbf8,
4ff3f1fbfdfebf7fc,
47fbf607fd81811f8,
40200606037f813f8,
1ff3fc080400805f9,
30200002037e81209,
fd017f5f904017fbfc,
27f40401040040807,
1813f204fcfec0807,
1003f205030100401,
8000e08fe813ee05,
3ff7f2080400c01fe,
20201006fd81c07fd,
10081009027e00dfc,
fefebfa07fcfe7fdfa,
1ffbfc02fc7e801fe,
2023f7fe037e81001,
fd0200ffcfe8180200,
10040403003ee01,
ff80c0008ff01ffc07,
3feff40800ffc0e02,
3fe3f1f9fefe3f606,
80803fd01803fe01,
4fdc0bfcfc017fe03,
fe013fa0001ff7f1ff,
8000608020140207,
fe807f5fcfc0001209,
201ff3fa037effe09,
fc81009fe047e40801,
3823f1f7fcfeffc02,
fb807f001feff80402,
fd7eff0000100403f9,
fc013f5fc01023f208,
4ff7f1fbfe81ff801,
fd81bf7f9010001208,
17ec03fd010140206,
fc81bf408fc8080607,
fd7f809fd03fe7f3f8,
fefdc0fff0402009fd,
2003fc0303ffc09fa,
7e3f408017f40a00,
fd003fc090401bfa08,
fdfe7f9ff04ff405fd,
4ff80805038200e06,
10180001007e00809,
fc02405fefd01c0808,
ff80003fd00c07fe,
37f3f0080180c0e08,
280809f90181003fb,
fb81bf20001ffbfbfc,
fc81001fc01003f407,
3fe01200007f00bfb,
80bfc06007f3eff7,
17f3f5fd0101bfa04,
27ec03fbff8040802,
101413fc040240ffc,
1827f207007ec0805,
fe0180c05007f3f806,
40080a01038080c05,
47f40802fe00bfbfe,
28140dfcfd7ec0808,
2ffffffb00807f5fb,
81ff7f7fc0240209,
47e807fefe80ff1fb,
3fe3f7fefd80c05fd,
302009f900827f5f8,
7ebf004fe7e80bfe,
7e7f3ff0200bfdf9,
1ff00a08fc027f805,
301bf406fe7e80605,
38040dfc04803fff9,
27f413ff007ec1005,
201bf9fc027f41202,
ff803fc07030240dfb,
40040dfe037fff1fb,
fd00ff80900003fdfe,
fc7f00405fe7f401ff,
fd00ff60400ff41004,
ff803f9fd007effffa,
fe80c0400ff7e00e02,
10080a09fefe00807,
fc01bfa04017eff603,
17f7ffff00823f1fe,
38140005018001004,
10140bfbfb82409f9,
180ff7ff0480ff5f7,
fffeffe030101c0409,
37dffdf703013f5f9,
fe80406000201803fc,
fc81c040001ff00402,
ff81801fdfcfe7f409,
3813f201018080e00,
7f1fffe7f81008,
fbfe7f20904fdc0ffb,
2023f600fd7f00a03,
381c07f800ffc0203,
fd813f801017f40405,
fe813fffd0300fee08,
ff0180e01ffffc0603,
fd01c1003fe81bfc05,
fcff405f8fd0000602,
ff7ec0c08fd8000e00,
2017f2080300c0606,
fd7dffdfb038080609,
300001f9fffe001fe,
fe7dc0e03017e40602,
201c080402ff3ee09,
fd00409ff02813f5f8,
4fe3fdfe047f7f207,
fcff3fc070082401f7,
401407fb017e413fc,
100bf606fc7f80009,
2817f6030180bf3fa,
fdffc03fbfe807f5fb,
fbffbf5fefeff7f009,
fe81fee06fc7e807fa,
ff7f811f8017f7f401,
fd017fdfd047e7f204,
37ebffffff80beffb,
3023fe08fcfebf007,
2013fe05fe7f7f3f9,
17f41003048040202,
fffe403f9027ebf3fa,
fd8140c0500027f3ff,
ff013fdfbff7f7f201,
fc8100e02027f80bfc,
ff0000a030001813fe,
1fec09ff048140601,
ff7ebf20100803f9ff,
7fbf5feff7effe02,
fc003f606037e80408,
fb8140c000401bf807,
fd01ff9fc017e805fe,
200e05feffff9fe,
37ec07fa00027f202,
ff8000a0103febf801,
281c09fefdfebf3f8,
fe01c03f8fc817f000,
37e7fc01fc0180402,
7e805f9fc007f204,
28000404fd00bf1fe,
47e009fc0402005f8,
fbfeffc02020140e06,
17f3f9fc0480c0a00,
fd01803f8fcfec0407,
80010080300ff5fe,
fc00c07fffefe3f3f8,
181007fafeff413fa,
40080bfafdff3f9fe,
381413f80280809f8,
fdfebf806fcfebf400,
4fec0401017effbf8,
fd81bf5f8ff01bfbf7,
380009fa03ff80a01,
fbfe40e02feffc13fa,
4ffc11fa04803f5fc,
37e00a09017e40a00,
fc023f808fc7fc0407,
fe8000006ff807f200,
18000408fb8240c00,
ff01c0ff8037e01209,
ffff40601fe81209,
1bfe0203ff40406,
ff7e40bfbfc7ebf5fb,
47e40202ff7dc1003,
3feff405fb82007fd,
fd7ebf005fe02009fc,
1ff3f6030400bf002,
27e80dfd0180c09fa,
2ffc0001047fbf602,
ffff40403017e40804,
fc00bfe01fd7fff403,
47f801fc00807fbf8,
fe803fdfb00ffbf1fc,
fffe80ffc01823f405,
ffffc0406007ebfdff,
4ff3f9ff0080803fc,
fefe00e01fe01c0207,
180000fffdc0c07,
fd8200409047ec1004,
fd81c0e02fe7f3f9fa,
17fc1007ff82013fc,
20000407fc013f202,
37f403f901817fbfc,
fc023eff800023f5f9,
fb8140df703003f806,
feff7fff90281bf3ff,
4027f406037fbf207,
ff0040208fd7fbf009,
27f7f3fdfbfdff7fc,
3ffbfdfd0280c0e00,
182405fb000101003,
1007fbf8ff7f40e05,
3ffc0a03017ebfa09,
fcfe7fc05017e7f009,
fe01c0603030000006,
fd80c09fbfd80407f7,
fc7ebfc06030000207,
3fe7f203fc7ec0605,
fc80005fa047ec1200,
ff7ec0e01ff817fe05,
fbfe3fff7fd7eff7fc,
3007f20601fe40ffb,
2fe7ee06fd7f40a01,
ffffc09fdfcfdffe07,
fe8000403017f811fc,
fe823f1fb037f3ee00,
fffe005f804003f204,
47e805fd03feff7fd,
ff40801fec0bff,
3ff809fd00fe80ff7,
381ff1fc00febf5fe,
ff80bfdfa018040601,
ff013fc03030040800,
feff3f206ff023f1fc,
27effa000001ff1f8,
4013f60102023f006,
ff01c0009047e3fa03,
ff007fbfc0480ffdf7,
fd00bf4070380bf001,
2ff807fcfd7efee02,
fe00806080301ffc06,
20180ffffcfe40002,
fdfe40e08fefe40e08,
3fe8060700817fbfc,
47f3fdfffe02411ff,
fdfdc0c0401003ee05,
ff0040fff017f40800,
fc7e7f007fd81407fb,
3ff011f7027e80602,
1ffc040104ff7f3f8,
201006050382013fb,
100410040181409fa,
febf200020240a04,
ff007f004fe7fbf005,
ffff80806fe813f804,
8000608ff80bf606,
fe02004040181c07ff,
10040ffffd7e3f1fd,
fd7e7fffbfd00bf3f9,
fe0080c09027f3fffb,
2817f5fdffff7fa00,
fd00bf800fc7effe02,
1017f60701ff3fc07,
47fff9f8fd7e40ff8,
fe7fc0403fdff007fb,
fcfe7f606037e3f406,
480c120500013f9fb,
fc7f40606fb8140bfe,
fe7f3fc04fffe7fa01,
80401018041004,
ff3f5ffffffff202,
18000403fe7e80e07,
81401fcfbff3fdf9,
fc818060601feff807,
ff008100101ff40dfe,
fc7f7f5fefffdc0004,
fe80c0dfd01ffbf9fd,
3ff00bfefd01c1001,
182411fe00fec0206,
fcfec0207047ec01fa,
fcfe7fbfe0100bf1fe,
fd80ffffc01fe00204,
3020120802013f7fc,
1fe4080400ff80405,
ffbfc06fcfe7fe03,
400ff5ff027fbf7fe,
10140bf9007ec05f9,
fd023f205fd81fee06,
fefe805fb008180606,
fc81bf7f9017f40ffc,
3813f5f703017f204,
ff0080e00ff7fffc00,
fc80404080381ff3f8,
17fbf201fcfec13fe,
fc00009f8ffff80a01,
fd01ffe03fe82007fe,
1ffff602007ec07f7,
ff7f810050301c07fa,
200c0e00fe003f3f8,
101ff803fe803f801,
37fbfa08fdfe7fff9,
4023effb047f80fff,
8180bf901fe7fbfe,
808080701813f408,
fb8240602fd01c0008,
fbffffc03ff003fbfe,
180001f7fffe001fb,
fd7f3f208fd0081004,
2ffc0ffcff00ff7ff,
ff00ff1fd027f7f203,
fd017f5fbff7e3fbfc,
18000ffd0301405fe,
fd7dfeffeff02009fd,
ff80c0e05fe00409fd,
fc007f1fb01827fe03,
38140ff6fd7e013fa,
fe7e41206ff0080008,
30100bfffffe007fd,
fb80801fb0281c01fa,
1007fffafdfe7f401,
fefdbea0101803f408,
fd7e40c02fd7ebf1ff,
2ffc03fc0100bf5fb,
7f7fdf8feff7f403,
fd003edfc047eff7fd,
17e80e00fd807f407,
fc0100bfd0201ff9fd,
300ffdfafc7f3f5fe,
ff8080a000302003fd,
2017fc08fc01bf1f9,
300c0c00fe81bee08,
4003fbf8fbff013f8,
ff00c0df8feff7ec07,
3fe00ff7fefe40404,
17f40400ff00ffe03,
480405f8fcffffa05,
ff017f60701007f7f7,
27dffa00017f3edfc,
2007effeff80c07fb,
fffebf00703ff00404,
fc7fbfffcff81c0803,
fd02c13fafffe80bfc,
fe80000f901bf206,
fc003fff9fc8180603,
3023fe06ff7fbfa08,
fffe7fa06017ec0001,
fe01804050382001fb,
807fc03fd01815fb,
101c11fffe80c0df8,
fe8240bfbfeffbf604,
fcff7f000f8ff3fdfc,
fdfdff00700ffbfdf4,
7ffe803ffff80407,
27effc040100ffbfc,
fe00c060703807f604,
fdfe409fffcfd01002,
2017ec0a0182011f7,
fffec15fdfd80409f9,
fe7fbf3fefd00407f7,
27e7f40500fec080c,
fffc407fdfd7ffeff7,
100409fd02ffbf209,
fe7e3f7fc037fc0c06,
ff80c13fc0081ff3fd,
80fe803017d809fc,
fc80c0a00fe8240e04,
97fff807fd0000203,
fd7f00bf901fdc0805,
37f7fe03fcffbfff9,
181ffa05027efedf3,
3808080804027f7fa,
fe7f7e7fc047f7f002,
f97dff7f9ffffbf1f9,
17fffc02fefe00404,
fc81bec09007dffbfb,
fe7efeff6ff803f603,
fe7fff0030301fe206,
fffe81208fe81007fb,
feff3f7f802fe409fb,
fffd80604017ec0ff7,
101809f8ff7d00607,
fa80bfff703feff003,
3007f3faf800401fa,
fcfeff00401823eff7,
ff7e3fbf5fd7e41206,
fa7fff001fc7f3e1fa,
18180405ff027fff7,
fe7f409f4fb7ec03f7,
fd80ffbfcfb7f3f9fa,
37d01009047eff407,
17dbfff6ff80803fc,
27e7f604020140009,
fdfc7fdfc02003ee03,
fcff7fc00fb00ffa03,
20180604ff803e9fd,
ffff007f1fe81005f9,
37fbf20803ffc0601,
fdfe805f702ff3fc0b,
68000a040100bfc05,
fe827fc0002feffdf8,
30000ffffdfe7f3f8,
3fefedf701813fff3,
ff02ffdfe03817f201,
807f405017f00ff3,
feffff9f8047dffdfc,
3009f703fb40dfb,
ff7e7eff7f98080808,
fe7e7ffedfc0241003,
381ff9fffe007f204,
201ffa00f901bf5fa,
fbfcff8030081005fd,
37e80dfe00ffffe03,
fdff7fa07027f81408,
f9fefeffbff7f011f1,
fdfdffc06fdff80e08,
fafdbddf801813f9fe,
37d7e3fffe7f40bf9,
fcfebfc06fe7ebe5fb,
fc8280dfefe80bedfc,
fdfe00df9fa7f813fc,
3fdc080aff013f3ff,
ff7d4120402fe3f3ff,
81003f1037e01208,
380803f6fb7ebf403,
fafbbf9f3fefe003f9,
180dfb0280bf3f9,
10000bfefbfebfbfb,
fffec15fbf87f411f2,
fffebe605fb0040c00,
37f7ee0405837f004,
5fe405f80002405ff,
2007fbf6010100405,
180bf3fefb82bfbf9,
fe81ffbf60080ff7e7,
3803f9f7fb7dffa02,
f97e3e1fffdfc40dfc,
f77f3ebf7ff7effbfe,
80c05f200fcbfbf9,
fb80fda06f48000008,
1405eefd7fc03fe,
3813de05fffe7d006,
27ec0a05fcff40dfb,
fdfcbf7ff00febfbf8,
3817f9ff00ffc15fc,
fafd3f400fe7cc01f9,
fd7fc0bfc017d3fbf9,
281401fdf8823f3fc,
fbfc3e3f9047f7f3f4,
fdfabcc07fb7c011fc,
fcfdff3fbfefdbde02,
fd00c09f6fc82c03fa,
17f409eff8fcffc01,
47d80c0600fdbedfe,
fffb8120102fd7f5fd,
f87ffffe7027e00e08,
37efe5f7fd0100c0b,
f27c3fbef017dbfa00,
2817f7f8fa7cff7f9,
3feff3fd00807e7fd,
38140decf97f3f7f9,
2ffbcc09027f3fc0b,
fd00401ffff013ec07,
9fe3e5f1ffffffffc,
1ffbedfd01ff3fa06,
fa80bf7fafb7e7fdfc,
817ebf7fa80ffff1,
fbfe00405fc81bfffc,
fc807e1f5037c005f5,
f5ffbe9f6fd0000200,
fcfdbe600017b7ffff,
fc003e9fef27d807f5,
fe7d3ede8fe7d001f8,
f77fff7f1fdfdbc1f6,
ff01be9f5007fbfdff,
fb7d3fbf80001bee02,
fa7f3fdfffd803e1f4,
7fbf000017bbedf6,
f8fdff1f800ff401f9,
ff7dffbfdf77c40c03,
fffb7c5faf9fe7edf2,
ff7a7e5fffef9bddfb,
ff017e9fb037d7e003,
1fd407f802fdbe9f9,
fb7f80de70079ff001,
fefe3fff7027f7effa,
fcfb403f6007abf5fd,
fd00bfbf000ff7f1f8,
f8813edf8fd80ff60f,
f77ac0de9fffdfebf3,
300bfff7fdfd3f1fa,
fafe005fb007dffbfa,
fd80c01ecf37fbffff,
fafebd9f5028000001,
1ffff001fffd3f5f8,
37b7f7fefe7fbee03,
30100605027e40400,
fc00409f7fb00be004,
37effdfc0201ffdee,
781409f4fdffbeffd,
fdfdfd20bfd7a00ffb,
ef823d5f4037dc0e0a,
fa82015f400797ea03,
17dfc5f4f47c7ea0b,
fa803f3ebfa01c05f3,
47fff009037ebc003,
7f01c07f680bf3f0,
fa7e001f6fcff3ec02,
68040c07fb0101bf2,
1fdbf5f600fbc1c02,
f97cff005fa7e815ee,
3ff3f9f8f303c0801,
fefa3d9f405fdfebe4,
177fce0bfefc01ffc,
fafe80601017e3ce03,
283003fb0082c01fb,
fdfd3f7e0f778c1203,
7d8000605fdbedf0,
7f901e07fe7bbf5f9,
fe7d3fdeb028101808,
6fe3f7fcfbff7f013,
f378001dcf9ff3f5f6,
ff7f40004fcfebe001,
67d805f500fe3edf6,
fc7fc23e5f0febfbf5,
fb7dbce0afd82bfe0c,
fd7f00a060381fe20e,
c7d3fdf9fb80bf5ff,
2c01fd0081ffe06,
201bebf200007e5fb,
fe7dbf1f404807f7e6,
1013f9fcfd7f7efff,
f6fd7d7fffc79c03ed,
effe7c9f404fb40e00,
20200df7fdf8ff200,
100fc9f8f07efe600,
fafc003ebf901801fd,
1fefda03fe803cbff,
fdff40405fdfd7f1f8,
fafdc0004fd7f7f801,
27e7fdfafa81009f3,
fbfd009ff02f9405f8,
fcfe007fffafb401f0,
fffdffbf7f1ffff002,
f77a7c7f600ffbebe2,
fbf7bcbfbfaf8805f9,
fb7f001f4ff7ebd604,
fb807f5f10001bf1fb,
37c7e7e4fefac07f3,
18080204fd003f7f9,
fe7b81804fa79ff207,
f77d3ebe5017fc05fb,
2007f5f700fe7fc0a,
f279407eafcff7f7fa,
fffcfe602fefc7e404,
200003f0fc7dfe1f2,
180017def0803e5ee,
fa7bbc602fc8000e0f,
1ffbf1fcfd81bde05,
5fc7e1f8f980ff5fc,
fe03801fe0200ffc04,
fc00c09f7fd017d9f8,
ff81405f900feffde8,
381bf7f9fd7f003f8,
fc7dbc605007b7f3ef,
ee803c60401fdffff8,
fd01407fafff93ebfb,
fc803d3f6f27cbf5f9,
fd7a3fbe7fa80bf7ea,
3fdbde05fd7ebbe00,
fd7d00a07f9fffe1f2,
fe7b3f7fdff80009f7,
37eff401fc7d409f2,
37d3fdf8fc7a40ffb,
f8fd001fffc7d3eff7,
7bff5fcf4823edfa,
f6f83d3ea02fc3d7eb,
fefa7c1f6fef8c11ff,
fa803f400fffefdbff,
fc81bf7f80101007f8,
fcfc7edebfa77c0e02,
fefdbf606fc7d7dff0,
fbfb00e03ff797ec03,
fb7fbdde6fd7e411fc,
37ebddf9feffff011,
f2f9401e4fcfdbe9f2,
fc7dffdfafa7c7d3fa,
37dff9eb017dbe7f9,
fa7ec11e4f27e7d7f5,
f9fb7d009fdff3f808,
fcfe005f8fd80fe405,
1fbbe7f9f8febee00,
fb837ec03ff7d7f5f7,
fe7dbe9f4fc7dfd001,
fa7fc03fffffcff3ec,
ff7f3fe05fa01003f1,
f27bfdc00fa7b7edeb,
f57d7d9f7ff7affff1,
2ffbfdea037a409f7,
fcfd7cbfbf47bc03f8,
fafaff9e1f4007e5ea,
fd7e7d9fefbfd7bdf0,
27e7fdfff37dbe7e9,
fb7bfebf7fbff001f8,
fe807ebf4ffff801ec,
fc7c809f9fd7bbfa02,
f27b7f3f1fd79bf1e7,
fbfa80bf8ee7f7ebf6,
f3f77c5f3ff7bbd5e9,
ff7bbdff9fcf8ffdf6,
f7fefea04f97cfc201,
fcff801ee00ffbf7f1,
fc79803ddf9797fdfa,
fafcff3fffb003dfe9,
fc7940bfefcf87ca08,
f5fffcfe7fa7fff9f5,
fefdbddeefc823fc04,
f77940febfc7f7e1e4,
fcfdffff5fcfc3ddf9,
fffe7eff3f97c3d9ed,
f8fd40be0f3fd3d5f0,
f77c7c9fcfffdfdc07,
27b409f6fbfffd7ff,
1f9fd5ebf97e3cdfa,
fc813e1f6f9febf3f3,
2fdc07eefc7d7bdfe,
f880ff7f700fabf1e0,
201003f5fc7e3dff7,
f4fe7cbfefdf8fdbe5,
f07b3d7fd0179bf9f1,
fb80803e5fb7b3fdf9,
fafdbdbfaf179001ed,
27b7ffe9f2ff3edee,
803dffff6fd7c1fe,
fbfd805fef67f3ebe3,
f9fabde05f87e003fb,
827dff101fe001ea,
fe7abfdfff3f8809f7,
f3fa00ff4f67b3e7e9,
f77abfdf4f500bedf0,
f2f93cdef007dbc9e2,
fffafc9ed0279005fd,
f3fbffa03007e7d201,
47f411edfa00803f2,
fb7cc11e6f47affe01,
f97c7d401f6fefe7ea,
f878c09fefcfa7ca05,
f7febe3e6f4fd00beb,
27cfd3ec018200804,
f5fa003e000febf3ef,
fb7e7e9fafdfb7c7f5,
3dff3f97b7c7e5,
fffb409e4f27b7d3e5,
fc7bfd006ff7bbebf6,
17aff3ecf5007d401,
17bbcde2f5fbbddf2,
fa7f3d7fbf5faff5ed,
fe7bbf9e102fb3b7fd,
f47e801f3007dbdde4,
ff7f809fff801803fd,
f5febda01fc7abe1e7,
f6fbfcffb01fd3fdf0,
7fc09ea027bff5f0,
f87e7d3fff57c3f1ea,
fe7cbede6f4017e7f1,
1fd3da02f47cfd9f7,
fcffc0003f97e3f5ed,
faf9fe5fffe00009f7,
febd7e9fe00fffea,
fcfbbe7f3f979bfffd,
f7fb003fcfb79fd1f0,
fa7a405f9f2003e7f0,
f6fbbcbf0007d3d9ec,
fefbfcdea02fcbfffa,
f580003f7f9fdbdffa,
fc013f3f2fc00005f7,
f8fdff7f3f87ac05f2,
f7ff7e401f8fc3e9f0,
f47b40a02fcfbbe402,
f57ffe1f4f97dffdf1,
fffebd3eb0280fe604,
fb7a7f9eb007fbf1e9,
f97cc05f7017d3cffb,
17ffe1e9f8fc7cde9,
fefbc0de6f2fdfd5f3,
f67cfe3fdfdfb7d5fb,
ff7ec07edf87fbde00,
fe7bfe7f3fc7c3cc02,
fb7d7d401f97c3f5e9,
fcfb3fdef02fc7b7f4,
f4807f3f401f8fcbeb,
3017f805fd017f1f3,
f6ff7d000fd7dbc9f6,
f979bd1fb01f9ff3e2,
fd01403eefcff009ee,
f5fffe5fcf8fa007e4,
fbfd7eff7f6007e7f3,
1003de03f4fcfdbf9,
fc7cc0c02f57ebe5ed,
fe7dbe3f6f8fe7f1f5,
180fd3f0fb7dc13ef,
fc7cff3f7f3fac1002,
f77cbfdf5fd7b7d3e9,
f87e80df6fc813f9ec,
f8fafedf102fdfdbf1,
fd7e3e1ebfefa013f5,
f97fffe05fdfd7f5fb,
1803e7edfa017f3f2,
f87d801eefa7ac0dff,
f1fffc403f27d3fff6,
f4fa80e04fe7c7d806,
f8fe7e5f1f27c811e8,
4fd7e3e8027d7f206,
f97e7fdeb0200feff2,
fcff40204fd79be202,
3fe7d3fcfa7dbdfe8,
fdf900df0fa7e7ebea,
fd7d7d405fdfafc7e5,
1fdbefe6f301bdc09,
fe7c7dbeef9f93d1f1,
f87abbff2f3f7ff7ec,
fa807e902fabcff7,
f580c03f201fbbdfed,
fe807effdf9fdff3f4,
fbfe7e602fcfb3ddf1,
f9fc3dff601ff3fbf3,
7f00df800fe40de7,
f5ffbdffdf57f00fee,
ff7d809fef780fe5f4,
7eff7fff600ff5f7,
ff7e40000fe003f1f2,
f9fc7effbfafebfa03,
280fdbe6017fbf9f9,
fc7b7ea04f3fd403f8,
f7fc3f1f4fb7cfd7ed,
f77c7f401f87ffedeb,
fd7dfe9fbfffebe9f3,
f9ff7d9ef017e803f2,
f9fcbeffffe7f801fe,
f980807f7fa007f9fb,
f1fdbebeff7fd805f4,
f6803e1fff7003e9f1,
f97d005fe03fd7f407,
f8fcbebf9f500801ee,
ff7cff7edff7ebea08,
fd7bbeff6ffff3fff4,
fafe40a06fe7cbf3f4,
fffebd7f8007dbebfd,
ff79405f5f7fdff1f0,
f8fdff202fcfcbd3f0,
fcfdc01f1f77f7f5ff,
fffdbe5f3fe7bff7f4,
fa7b3c603f3fcbefeb,
fc809fc007c3ddfd,
f77ffec0400ff7d7f9,
4003fe04fffffeff6,
fc7e7f5fbfb7dfe1fe,
fbfc3e5fa00fc801f0,
1017fff4017eff3f5,
f3023f403fefe005f7,
7d003f9fafeff5f4,
fffe7fc00fafdbf5f6,
fefd40603f800bfff1,
fb7e7fa07037d407fa,
fe7fbe7feff01c0bfa,
fc7dff404f8fd803f7,
fcfd7f3fdfafd3ddfd,
ff7dbfdfdfd0100df8,
fb003f1f3027d7e5f8,
fdff3fffbfbfe80802,
fb80ffc0400febee02,
fd7f3f1ff02803f9fe,
f8fdff5f9fe7cffa00,
fa807f1fffafd401fa,
f6fd80a02017c7f5fe,
fe81ff5f5fd7ec05f7,
13ebf0fdfe7ec01,
fefeff3f4ff807f9f1,
37f7fa00027c7e1f7,
3003e3f4fc7d7eff3,
fbfe00bfefdfebf1f5,
f97e7f5fdfdfd3fdf6,
3fefeff5f77ffe201,
fdfefe3fafffe7f7fd,
fcff7f5f9fd80bfb,
fefc7f9fffe7c3cdf7,
7ebfffa03ff3ddf3,
ff81c0c0702ff3f7fd,
fbfe3f6030000bee01,
fc007fdfb007f40bfd,
ff8140df40101807f6,
fa023fa01fffcc0a01,
fdff407fbf983405fd,
1fdc0207007e40403,
2ffc0e07fa7e3fbf4,
17e801fafc7ebfa06,
301ff9fbff00411fd,
3fe805fdfd0000a01,
fb7d803f8fb7dfeff7,
fbffc0dfefe007edfa,
17e7f5ff04ff7f801,
7f7fffd0180003fa,
fc7d8040201ff3fbfc,
302409f90081c1201,
fa807fe060180c1604,
feffff402017f80801,
fd7e00e0afcfefee01,
faff7e7fc00fe007f8,
3fdfedf7007dffe0e,
fb813f3f903ff7f9fa,
38140dfafe7fffff6,
200803fdfc8040803,
2ff40805ff017fbfc,
fa00fee07fc7dbe7ee,
80bec01fa02bf207,
feff403f7fd7f3e7f7,
fffc7f602ffff00bfc,
fe7dc1202ff00bdfff,
fc7fbee02fe00ff1fa,
ff00beffbfcfec05fe,
ff7f403feff7fff9f8,
fe8040202017e809f9,
ff7e00001027e40df7,
fe817fc04fc7f7f9fa,
ff7d80e01fdfe3f3fb,
37e401fdfd81c0dff,
fd80003fd00c0802,
fd017f2060381c09fd,
fd8180602fc7e003f6,
ff81ffa07fc8000005,
fd0180c0303ff3fffc,
fd813fbf8fc80bf9fa,
faff80203fc81bf600,
fd7f3ee04ffffc0bfd,
fc80809ff007fbee03,
180803fcfd80807fe,
fa00ff9fafc7ebf207,
1817f608fe00bec03,
fb80c01fd03fe3fdff,
fb01c03fb028140003,
1ff1fc027f3f809,
fe017f9fb0380fee04,
ff7e00a0402fe809fd,
201bea02fefffec01,
c15f5fbff3fc04,
2013f00303017f1fa,
18040dfb02fe3ec02,
feff80605027ebf603,
fcfd80403fb017f205,
4007f20404013edf8,
3803fe08fe7e3fdf8,
580ff1f803fe80806,
17f7ee0bfe7f801fa,
fd80bf80205803f7f9,
fc7fffc06fd7dbfdfa,
280fec06fbfe00a01,
fd7f3f5fbfd7f00e01,
23ee04fd003f203,
fcff809fefd7fbfbf6,
8000e05fefec0bfa,
281c0604048100bf7,
febfffeff00011ff,
fcff0080701fdbec03,
fd0100ffd037f405f7,
300409f6fe827edff,
fcff401f80201001f9,
80001fafc7e40bfb,
ff00ff1f90202ffdfd,
fb81807f70000001fc,
fc01001fb01803f7f9,
fd814120bfb807fff8,
40080ffc017f009fd,
281bf40401fe7fffd,
ff7dffff8000240df7,
fd023fbfbff80bec04,
17e001f8ff7f7ee07,
fc7f405f9fb01bfa02,
fc0040406fffeff404,
2813f0010381bf7fb,
4007efff007dffdfe,
fdff80206027e7f806,
381c0600fc81ff1ff,
47ebfe00048100806,
281bf802fe80c0bfd,
3817f603fd817f400,
3827f604000140c06,
181807fe020040ff9,
3823f3fffc7f00e06,
27e3fdfd037e80e07,
fcffc100103ff40801,
fe0100a03fbfec0008,
ff7f00200047ebfff8,
fe8080e00047e00dfb,
fbfe40c00017d80e04,
400bf5f7fd01009f7,
1ff7f603fc0140c09,
feffbfa03fcfe3fdfd,
7eff9fc0101c1006,
fe0000c03fcffbfdfd,
fc7e805fffe8180ffc,
fe807fc0901007f9f7,
4fec09fe01803f3ff,
fcfeff803ffffc0bfd,
400ff5f8000101009,
ffc0a0304017f800,
feff002fc8080e02,
ffffff80202ff40606,
100bfe01fcff3f403,
7effffdff81bfe08,
101bfe05ff8080607,
37e40407fe80011fd,
fefec0bfdfe827f607,
fe80807ff04003f9ff,
382bf1f900ff00dfa,
fcfe41005fe7e80ffe,
10240ff9fd7f3f1fa,
ff81405f7fe7e7fc03,
fe00007fa0202011fc,
ff7ebf204ff7e7f401,
fd813f9fdfd81bf5f9,
fb807f209fc7e00406,
47e7f7fb037f7fdfe,
8000700fe40dfa,
1ff802060401c03fc,
fd0000e0504ff803fd,
ff3f00201817f601,
1ffff008fe027f5f9,
fd7e3eff8fbffbfe03,
fffe3f1fb007f40dfa,
ff7f80207fb81401f9,
100c0dfc030001200,
4827f1fcfdfec0a03,
2007fc0702fe3fe06,
3023fdfe007e80fff,
57dc07fe00fdc03fb,
fd8240603fc7ebf006,
3827fc07fd80c09f7,
ff813f605ff7f009f7,
ff0200c07027f40ff9,
280003f9037fc0809,
17e80801017fbffff,
ff027effffdffc1206,
17fc0408027f80006,
fbfe40605037f403fa,
fd02802000201bf005,
c0e0903017ee01,
fd7f3f402fe803f1fe,
fc01409fdfe007fe08,
fd808120100fec11f9,
fc007fdf9ffffc0dfb,
fb803f7fc01fe00005,
fe0080601048081200,
382407fe03807f3fd,
ffc05fcfcfe401f9,
fc80c0c01fd7f7fa08,
13f008fc7e409fd,
181feffb017fbfffa,
17f00c05fc80011fd,
2813fe02ff7e803f9,
fd0080607020200a04,
1feff402ff803fa04,
fbfec05faff807f604,
fc01005f8037e805f7,
1817eff902013f200,
feff7fdff01fe7f407,
2fe8040901fe3f208,
ff7ec06020400ffa01,
2803fe0602023fdfc,
fd7effe04fc7f007fd,
400002040400005f7,
ff7ec0008038080401,
37ec13fefd017fdfd,
47f809fb0300c0603,
fd0140a06fc7e407fc,
4ffff0090300c0802,
ff3f9fefe7f7f9fe,
3febfa06017f81005,
281bf403027f40dfc,
2823f601ff7e7f408,
1017f8050000c03f7,
ff7f7f9fdfdff00005,
fefebf3f9fe017f3fe,
fc7e00dfa02febf9f8,
fdff7f007fe81c0e09,
10020602803f3fa,
fe7ebf0030380c0bf8,
fb8240807fdff809fb,
38080c02030140608,
fc813f80404007f7fa,
fffec0803fd7e00003,
1feff5fa048081005,
fb817ee00fdffbf805,
fb80004060181c0004,
fb80c0e0900823f601,
fefeff5fc00023f7fd,
18101007fd7e7f201,
fec0df9ff823effa,
1ff80fff0400c0803,
fe803f5fd0201bfe04,
ff8100006008140604,
fd8140c08fc80ff3ff,
ff7e7f3fa037e40e04,
301ffe01fd7ebfe08,
20040808fd007f7ff,
fc807fc01fbfe7f407,
ff7dc09f8fe7f7f7f9,
fc813f3fdfb8080602,
fd7f80c07fd7f3fffb,
fc7f800020101ff5fc,
fefec0c0500817f002,
fffeff3fafc8100c01,
7f7fbfc010080000,
200207fc00bf9fe,
fdfe005fdfdff40bfd,
47f809ffff01ffffd,
37ec100702827fff9,
401beffafd01c11ff,
300bf1f802ffc05f8,
2007f001ff7ec0806,
feffffc017fff1fa,
7fff3fa0300c13fe,
fe0200a03047e409fc,
fe81c05f803817f801,
100413fc0180bf1fb,
fb80803fa027e007fd,
7eff60402ffc13fc,
1807fc07fdfeff3fc,
fe3f3fd030080e03,
27eff5fbfd7e409fd,
ff7fe03ff823f5fd,
fcff411fbfd817ee00,
fc7e3f5f8fd7fff009,
fe01005fb000240008,
fc7f3f205fd823fa08,
7fffbfbfd8180bfe,
38181005fe80bf008,
fffebfdf9028100c09,
fe007fdf9007fc1204,
fffebfbfefeff80007,
fe02403fe01003fbfe,
fd82007f70280bfa07,
17ec0e06fefeff7fe,
feff801000000009,
fe7e7ee06ffff80bfb,
ffffbfffdfd80803ff,
8100206018200602,
fc0240a04fd0001209,
281c0c070481ff407,
400811ff03febfff9,
48200606fc7ebfffe,
30080e09fc00bf7fd,
4813f20901fe80200,
ff7f403f8feff7f9f9,
3003fa010280007fb,
81c03f701ff3f400,
fcfeff000fd80bf9fc,
180feffbfc80811f8,
fe8141003fe80411fa,
2fe411ff047fff7fe,
fe80806070281411fa,
ffffc1208fe81c01fd,
3fdc0df90280401f7,
381ffbfc04fe40a05,
fe7fff206fcfe00e02,
301bf00803feff805,
fcff803fb02803fc01,
fd7dc0df902023f9fe,
fefdc0ff904fec0e03,
fb80401f9fc7f80df8,
fcfebfdfa027ebfff9,
4027eff8fe0100804,
ff820120102fe7f402,
17f40005fe7e3f7ff,
fd023f5fefeffc0e04,
fb8081003fcfdff205,
3017f807fd01bfbfc,
17dff5fcfe81c0808,
7fff209047fc0a06,
fc7ebf5fcfe7dff201,
47dc080400ffc1207,
30140603fd02007f8,
301009f8fd81ffff8,
18101003fd80ff804,
fc00c00020080007f7,
fe0080008fd023ee04,
27effdf9007f40803,
400c0c050481011fb,
fd813f205fc0200c08,
27fbfcff0100602,
808080302fdff3fa,
fbfdc05fdfd01ff600,
17fc07fafe81c13fa,
7fff3f7047fbfbfd,
481c0bfefe827f5f7,
37ec0df8027f80e03,
200ff9fcfbfe7f002,
1017f1fbff01c11fe,
81ffc03038100601,
feff00ffffe823fe02,
ff0180205fcffffff9,
fc8180804fe81bfbfd,
2ff401fefd003f802,
7dff5feff827ee01,
fe00805fd7fff809,
fe81411fc007f405fe,
1ff3fa0602023f003,
300bf005fd0180802,
feff013f7047fc0402,
37f3f4030201bf000,
ff017f5fa01ffc0603,
fc80c0403fbfe3f5fa,
fd00c05fffe813f3ff,
ff603057f40002,
1c0400000180207,
ff80001f804023f5f9,
182401f7ff8100dfd,
fd0240000fd7fc1206,
fb807f7fffcfe3f7ff,
fe80002090480ff9f9,
fc00bf00904ff40609,
fcfe7fdfbfc7f00803,
181ffff70280ff602,
27e41000017e7f800,
101c1201fbfe7f3fc,
fec0406fcff001fb,
2fe7eff8fdff00209,
ff7e009f8ff0100a04,
fe01c09fb037fffdfa,
101bf206027e3f9f8,
ff807f403047dff006,
3ffc0e060480409fd,
7ebf7fe00827f600,
401401fb037f80809,
fb807f1fe037f807f8,
fe7f400050101c0e01,
2007ee09017f01207,
37e3fbfc047e811fb,
fe8180e03fb81bf1fb,
1fe012000000005f7,
fdff803f7ff7f007fa,
604fe023f1fd,
fc00c0601fdff80805,
1ff3f9fdfffe409f7,
fc0040604010080401,
480805fd01813f3fd,
fe81bf803fc01bf5f8,
fd8080e06fe0080c03,
fc007f000ff01fee02,
8180202fc81407fa,
fc803f3ff010080805,
3ff80bfbff7f80ffb,
80c13fefe7dc13f7,
827f208028140df9,
fdfe40609fc7e41007,
380ff008fe7fffc05,
47ec0208fe0200c01,
40080205027e7f806,
18081002fe7e7f9fb,
27e00c05027e3f3f8,
ff813fff9ff80ffe07,
ff017f405027e409f8,
fffeffe02ff7f3f608,
181ffffb01023fa01,
101bee040402403fa,
180008040100bf805,
fc7f80e04ff027fdfe,
10100e00047f00c02,
fc00c07fd027f00801,
47e007fc038140c09,
817f5f7fe7ec0a00,
1ff808020280ff001,
fd01ff1ff0001ff809,
80bfbffffbf007,
ff00405f8fb7ebf204,
47d8060503ff7f5fd,
fe7fc03fb040140403,
17dc09f60001bfc02,
fc80c040701807f5ff,
fcfe7fdfafb8200807,
281ff409feff3fa0a,
30000dfe02fdc07fc,
fcfec0e06fd7d81004,
fb7f40206020140a07,
fd01c03fefb7f01405,
fb00fee0100817fff7,
fd80bf5fe02ff3fff8,
fb00bfff7fd7f40c03,
47e7fffaff7fbf9fb,
47d801ff02fe00e09,
7f3f9fb00003f5ff,
1ffbedf9feff801f9,
fc7f807fa0081c0dfb,
37f807f9fc7fff002,
27f3f5f9fdfeffa06,
37e81003fbffffff9,
fcfe0080404febf5f6,
4fe801fdfffefee01,
ff803f8000080c0608,
ff813fe0800823f7fd,
ff7e00dfafe7fc0c06,
37f80608ff7e7f808,
fe81005f9fd81ff403,
81bf60704fe7fdfd,
fd007f408fffe809fc,
fdfdffe06fe807f1f8,
fbfeffa0403ffc0600,
ff7fa0000ff7f606,
37e7fffe01ffbf604,
7f8060400023fe05,
2fe3effdfbfffebfd,
ff7eff9fc0001009fe,
4003f604017e3ffff,
37ffeff8fc7f3f801,
380c1003027f003fc,
fbfe011f8017f7e9ff,
30040ffcfd01c03fa,
fd80fe9fafd7dff1fe,
80fea0300fe81207,
180c04fc817f008,
fe7fff5f60380c03f7,
fcfe40df600fdffbfc,
2fe80606fd81c0404,
fb007ea00fffdbf5fd,
100ffdf90281ff7f9,
ffff7f7fdfefe80000,
7cff1f8037f80df6,
fd00bedfc047e3f7ff,
2fe3f7fffb7e7effc,
fefebf5f8f9fe80000,
7fbe7fe047dff1f8,
fd01c0e01fc817fa05,
fdfec0403fe00009fb,
fe7d3fffb00003f802,
37fff203fdffff1fe,
fdfdbedf5007ebfdfd,
581bf9fe0180005fe,
f980ff803fe00001fe,
f7807fc0003fcffa04,
fc0180ffc027c007fe,
7f3e5f5f8fd7f3f8,
fe7e409f7fdff81002,
3813fdfb01ffff5f7,
fd8080dfc0080bfbf6,
fe7e80dfcf980ffbf6,
57d80003fe7f7f805,
fe7dc0e02027eff600,
fb01bee03fb0100804,
fd8180008f8ffff3f7,
7ebec01057d3f7f4,
fefcfe802007dc1001,
fc7d40c05fd7d3ea00,
fe7ec0df6ff7f009f4,
7d7f3f9faff001f8,
fc813fdfd0001801f7,
803e804ff7e805ff,
17dbfbfcfdfd7fffb,
4febe601fe0080a02,
fd7d009fc01817fbf5,
17fbedf9fbfdc0605,
501ffe07027e7ebff,
fa813effbf9fec0400,
7e7f203fd7ec09fd,
181bfe00fd02c0200,
501001f403fe003fa,
ff7fff5f800ff7ebf8,
ff7f3f7fafcff405ff,
febebfb01827fff3,
201ffbf8fdfdff1fa,
fbfdbe60c027c813f6,
f501feff402ff7f601,
203021f3ff7c407f9,
ffff7f5fcf77d3ea0a,
fd01805edfe02c03f2,
7fdbe81201807dbfa,
1fec2205fd7cffdfd,
17e7fbfc00fcff5f4,
481401fc007f81401,
fafd3efffff7d81c00,
fbfdbee04017d811fc,
1fe3edfafb82bf20c,
fa7e7d20005807e5fa,
fc7cbe809fe7dc19fd,
fc7dfebfb00803ebfe,
80ff3f80382fec00,
fb003f7ebfdfdc1800,
47f0100a02007edfa,
feff807017cff3fe,
f87d7fbf202fe4080b,
3fd7f3fc017dfebfd,
f3fac01f1007fbe5f9,
ff013f7fdfe7e3edfe,
6008040300fc3e9f1,
fe00bf9ebfc00bf5fb,
fafefda05ff81c0001,
27d3fc0a01023ea06,
87dfedfbff817fa00,
fe800040204027f007,
fc023edf80102bfff2,
87efeded0002ffbf4,
ff7e3fb00fdbf1fd,
f97d3ea04fe7980ff3,
f7023d5f0fefdc0008,
7e3fff5faf8bfe00,
fc7efd9f0f8fcbea0c,
17dfedf3f700ff7ea,
27e7e7fa09fcbd9f9,
f87c3f9fbfbfcfedee,
fdfe803f6f4fcbf9f0,
7cc2412fcfe403fe,
fd7c3ebf907fbbfbfb,
f8ff7f204fcfc811f8,
67dfe5fef7fefe20b,
faf9bc9fbfe7d3e1e7,
ff79be60dfd7c3fdf2,
f67e009f2f77e7d9f8,
ffbe5effe7efedfc,
fffe003e2f5f8c07f9,
27d013fd0480bebf7,
4f9bfa030179be007,
fd7d7ebeb05fc3fc08,
1fd3f3f6fa7fff400,
effb7fde8fc80beded,
f6ff3e5f3fa7afdbfd,
ff80c1df5f6fbbebed,
f803bfbe7f1013e1f0,
fdfdbd5fcfb82013fe,
fcff3f40f067efd400,
fb7d7e7ecfe837d9f5,
ff80823ef0304be00b,
fc03bf1edfe82bd1f6,
ff7dbf1f9fb7fff7eb,
fafcfe5f2ff7fffdfb,
f7ff3bbfafff9801f0,
ee7ffc1f1fa7bbfdff,
ff7d3e9e6f9f7be5fc,
7c7bdf2f57d7fa01,
ff7bbf5e1f57cbf1e7,
f97c3dbf6ff7d3c3ee,
f8febf1f7f67d7e7ef,
fffa3f801fd7e7dffc,
f97cbfa00ff7cbe9ec,
fb7c3eff601f97e200,
f47b3ee0100fc409f1,
fc7edfeef7c7f400,
f9f83c1f2fb7e7d9e4,
fe777be00fa7aff3fc,
fa7ebe5fafd7e3c3fd,
f7fdff9e7fe7cffdf1,
fefb7e9e9f4f7be5fc,
37d401f3ff803fdf0,
79be5f2f8f83e205,
f3fc7efe4ff7dfe802,
f7fd7d7e7007cff3fe,
f1787f9e8fe7eff5ea,
fa7f7e3fff97b7e600,
f7ff003f1f979fcde6,
f9007e5e7f1fdfe7f5,
fd7dbcbf7ff8100ffd,
fa7dbf7fa01fdbebf4,
fcfdbebf0fd013d3fa,
fefec0df0027f7f204,
f87fbf7f3fc003d1fb,
fe7a3ddfffa7e3f5e0,
f6fe7ddfdfdfebf1ee,
f47dbd5f300f8bf5ed,
f280fc5f9fbfbff7fe,
fc7dfebec00783f3fe,
fe7fbc1faf07a3fbff,
fb797cfd9f77e3e7e9,
fb7cfdbf2fdfe3c200,
fa7e3e1f5f87dff1f0,
f77a3eff2fe7f7fbf8,
f97aff7fbf7ff3e9f1,
f4fbbe5fbfcf9febfa,
f578feff3f8f93fdef,
fbfa7ea03f27cfec01,
f4f7bbff0f7fdfe3e3,
f975fb9fcfaf7be9f3,
f87dbfff4fb7d7bdf6,
f6fe3d9edfd7cbf3fd,
ff7afe3e6f8797e7f5,
fd7fff1f4fd7fbe5e8,
fff83dbf7fbf83e200,
f4febdddefefdfe5fc,
fc7ebd7eefd7a3e1f9,
ef773cdd9fe007f1ec,
fc7dbf9fcfdfcbd403,
fafdbf9e6fc7b7e1f1,
ff7f3dbd8effb3cbe5,
f0f97c3f2fc7eff3fe,
fdfc7d1fcff7d3cbf0,
ff79bd5f0f77e7d1f3,
f5ff7f1fefffeffff7,
fafebf1edfcff7cff7,
ff7a7e00200803f7d8,
381bdff2f57d403ef,
f600fa807f975c05e3,
e77dfc40400fb7f5fc,
f800407edfa737e7f3,
fbfdbb403ebfafe1fa,
fcfc7e7d4f280fdde9,
279bd80200813aa08,
f38200405f3813ffe8,
f6fb3cff10280fec05,
1fbffffefa7dc05e8,
f5f9bcdf3fef5c05f9,
f37c7f1faf7fa3f3e3,
fabe1f4eb01011f7,
f473babe90482bcfde,
f876bc5fafaf640a05,
f3fffdff602807bbf5,
f37ffcfe4fc00bedfc,
fbfa7e5d1f67500400,
100207fffec03ec,
fe76be605f9f7bc605,
f300fddd7fe8180ffe,
201bc7edf9fd3dc08,
e7763dbd0fdfcbffe6,
47bfe5f0fef8fddf2,
3fcbfbf600fabd5eb,
feffbe9d9eb7c3dbe9,
f97b7b007f77fbf408,
fcfcfda00fe817d006,
fcfa3c7ecf97f7d203,
f60240c00fcfebf9ff,
f87ebffeef77f7d804,
2f9bec020200bf7d7,
1017d1faf4ff3f9e5,
f47e7a203f8f4001ef,
e281fb208007c3f607,
fe81809f3f774beffe,
fd7b3a809eafcff604,
fe7abc9cbf800fd1ee,
2fbfe2020182ba3fc,
fa8100403f680405f2,
f5fbbb9f50380be200,
1fb40c05f7fc80be5,
f87c3dffa0373405f5,
f8793ddf7f1fc009f5,
179ff1f0e600c0607,
f57538fe90301be3d3,
f5f479a07fc768040a,
f5823e1f903ff7adf9,
f681fd7f3fc017de01,
fe7afc5cdf5f24060c,
808060502fc809e9,
2f4bf405fbf33dbfa,
f901bd9d00281c0005,
fffddebfa7bbcc0b,
e9f3bcdc8fb7c3fdf1,
177bfdfdfb7c7e1fc,
7d40bef03fd3e5ef,
381bf3cce57a7b1f1,
f979f8803fa01c080b,
fbf97e00402807de04,
ff78fe7edf1813da08,
f20301209040240e03,
f3827f7e8fd00be7fd,
f77d3e80d05fc3edd9,
382bdbf1ec7e3e7d3,
f680fa20bfaf4be7e7,
eb7c7a2050578801ed,
fc8181be6f876fedf4,
fbfdfb40cea793fdef,
fd78be9c9f4023a9ed,
4f9bd809f7817a20d,
f78101406f583bf7e7,
e97afb1ef03023f40e,
57cfe1edfefe80be5,
fa793d5ecf6f5c15fd,
f578ff1f5ed7a3ebe6,
f879be5f8e901813f0,
f872ba3dd03003d1d5,
f476baff2faf541209,
f402fe9f90180badf6,
f8017e7e6f702bfbff,
fb777d7d0f2f381206,
f781fe607f87bbf7ee,
f974be40aff777ddf7,
f4827bfd8f981413ed,
282fd7e8fb79bd809,
e971fcfd2fffe007e6,
3763e9fefffafd7ec,
57cfe5e902f93c9e9,
67b3e7d5e8f4b83e4,
f1783a007f8fafe401,
f97bbe1f0f782bca07,
2777cbe4edfcfce0a,
e8003f408f5fb813f4,
f47bfe3e7fefcfd00e,
fc7e7f004003fddc,
5027f1f3e47e3e5c7,
f0ff7ba0cf7757ffe6,
eb7f7b1f90579bf7ff,
fa82811dffd76bf200,
fffeb9ff1e979bf200,
ff79ff3d7f082b8ddd,
5fc7ba08017dba9f3,
fa7e4120cf2fcffddf,
e3f779bf4fb7d3e5f1,
47bffe04fb7d013e1,
f7f7be9f3017780ff2,
f3f8ff5f1e3793f9e1,
ff783f5e9ea82bebfe,
f0f6ba9e605fbfd3db,
fdf57adfbfaf7413f3,
f07d3e7f8fcffbb1f7,
f9837ebe2f6823effe,
fffa3e3d1f3f6811f2,
17eff607ff7dff9e1,
fef5bfc0bfaf4fc400,
f17dbc1e0ff7e81004,
67dfc9e0fe7ebe80e,
edf53f5d0f7febf5e4,
fcf27dff2f9787c3f4,
47e7fde1fb797c7e6,
fb80ffbd5e9f237be5,
eff97b008fa80ff800,
f8fa7e4000101bc60b,
67b3c9e3e27f3cbf3,
e880001f802803f5fe,
faff7e1e5fb807cbfa,
fdfb3f3fe027f005e0,
1013d7fee4ff3edc6,
f37d7b404f7787f9e8,
ed003b9f600f8c03ff,
fa80403e5fe79001fe,
7f7bffbf0f97f3fe,
1767dbdcf280f83e9,
1fafce04ffff7b5fa,
f77ec0201f1ffbfdeb,
e17ab7ffcfe7e3e9fb,
27b3f9f9f8fdc05e0,
fc7a7e7ecfe76c09f6,
f0787e5f2e2f8bf9e7,
ff763edf6ee00fee01,
f0f77b9dd02763c3e1,
f77b3c4000078005f9,
f3feff5f1fdfdbb3f3,
fa013e7e6f501be9fa,
175fe7dbf1f4c0601,
fdfd7fc04007cff1e4,
f7bf602f9f7bd1fe,
f3febb7e7ff7ec07fc,
febc9e6fd79fea08,
f4777e1d7fd7eff1e4,
fef07f9f6fa793c7ef,
27e7ffdefef9bd3df,
fbff7f7d4eef0b5fe3,
ef76faa03f9ff40207,
fd78bebfffe813d203,
1f8bc3e8e3003c1fa,
e282001f2fd7f3f5fe,
f4803ede2007fbc7f4,
fe79febfb05fe7efe1,
5823d3fde3ff3e1bb,
ec7f3b40ef8f67f7d8,
ea7e3c3f405f7c03f6,
2c19dffcfa3e7fa,
fcfd3b5f7ef77c03fc,
fe763cbd5f102787dd,
4793b809fc7cba9fc,
f77dc160df0fdfe7da,
e07738bf3fbffbfbfc,
4faff9fafe80011d8,
f2767cbecfdf680ffc,
f275801f0def77f7e1,
fcf77f5f5ee827fdf5,
f1f6fbbdd0577fbdd4,
f77b3b9fbfa75c17fc,
f0fd3f603fafefc5f3,
f5833d7e1fc01feff6,
fc767d3dbee78013f4,
fdffbf209fbfcfffdb,
faf60040bfaf6fc1f9,
ed7dfb5e5fe7cc15f7,
57e3bbe100fafd408,
f374bdbd9f9fd3f7dd,
f8f03fff9f978bbdf7,
57b3efdef8f6fb3e4,
fb7e803e1ecf0b59de,
eef7bba0afffe3ec08,
1f9bddf6fd027b809,
3f97bfdfdffdfc9fa,
de023f9fcfe7efebf6,
f7fe3f7e3f8fdfa9f7,
f97cbf5fdfe7cbebe3,
ff00bddffe6813e5cf,
ef807c000fc76febde,
f17d3cff800787f7f6,
fcffffbdefafa803f2,
f900bbffaedf87e9f1,
1f83d5e9ec7ff8fd9,
ff7bfbffefb7ffd3f9,
f47fbfbfceefcc03de,
e778397f4fb7c3f7f5,
fe793e7f4fb7cfffe0,
f4f77d9effa7a40004,
ecf87ebf3e6f6bebd7,
f9f8bebf4f2003f5f4,
ecf83c7defff4fc3e1,
f6fa3c1f4fbf9ffbfa,
ee7ebe9fefe7f7d7f8,
f4803cbdaf880ff802,
fa76fe7e5eef97f7f8,
fb7c7f3fffbfcbf7dc,
fb78c07fd0177fb200,
efffbc1e9f87fbfdf5,
fe803c3dafd7b7d80a,
f8f9bdfe0feff805dd,
fff2bfff70077bb7f1,
fe7abebe2fe767c7e1,
fbfcc09e8f070f77e0,
ef76fd3fefefdbee00,
fb783cdf7f97fbb600,
3fcfbfdee4fd3bbf7,
e57fbe3f6f8fdff7fa,
f17d3e7dafd7d79bf8,
f8fa3efef00fc7e5ed,
7f7d7faec00ff5d8,
f4fcfdc01fc7bbdde4,
fb7d7d5f3fff9413ec,
2fffffe1037d407f0,
fb7ffdbedf7f8009ef,
fdf9fcdf1f3ffbb3e2,
17c3ca00f97abedec,
f47bbfe05f3fc3efe4,
ec797b5fef9fe001ec,
fffabdbf2007e401e6,
f5f9fcbfdf879bfbf5,
f478405f3ebfa3d9e7,
f978001f9fa7ffdff3,
f1fc7dfe3ff75fc9f2,
fa7ffdbec01f97fff1,
f2fc803fbf5fe7e5fa,
f8813e9e1ffff7ebfa,
fa79fc9faf27e005f8,
f7fa7d602f7fe7ebe9,
f97a41403027a7d003,
f17afc7effafac05f4,
17afc3e9fffabde0c,
fefd3cdf401fe7e3e1,
f575bee0101797c5f0,
17f3e9e7f8fa3b9dc,
f6fc013f8fb7778be7,
f3f9fddff027cbe1fa,
1fc3cdeef800bd003,
17cbb9e5e97cfc1f5,
f0ff7e9f3fb7bbe3eb,
f57bc01e5fdfc7b1ee,
fcfdc03f9037d7ddf2,
4833e3fff3ff3f5ee,
ee7ebe00bfffe3f9e3,
fa7e3ebf804f8405f6,
fd0381be801007f7f1,
f6007edf5f779ff7fa,
fd7d3e1f5f4833d9ea,
67dbcc0bfe7d3f1fa,
fc7d40e07f17bbf3e5,
f6fa7d603f6fbc09f2,
4fcff3f9fc7f811f0,
f677feff7fcfc81800,
f37c80603f877bfbe9,
fc7cffbf4ff02be9fd,
f17dbedee077c3d5ec,
f57dfdbf5fd7c417fa,
f07eff1f6fb7f3ee06,
fa02bd3e8fc837fdf6,
f7fb7edf8f37d40ffc,
f9fefee0afc7ebf3e1,
fc7cc180901fbfcbfa,
f27f3e5f8fdfe015f7,
57c3c1e3fefdfec07,
fdfebdbf7fdff7f7eb,
faf9807f6fb7a7c402,
3fcbe5eef6f97d7ed,
fcff01df50079fd3e3,
f8fcc040dfe7e3ec02,
17d7dbf9fc83bce08,
2ff7dbe9f87cfcffc,
f37f801f7fafd7edf6,
f57e3f1e5fffd7b9f4,
feffbf7f3047f3e5fd,
3813f7f8ffffbeffc,
f5807fa0bfdfcbe1e7,
47e3f3fc067a405f4,
fe80c09e401ffbedf0,
f4fe3dff9f9fa7f5f1,
fdfc7e607f700ffdef,
3fdfe003f97effdee,
fb7c40c02f6fc3f7e3,
f8f8bf005fdfd3ebf6,
57bbf7f6fc7dc07fb,
f97b3f402fc7e003f6,
f7fd807f8f97c7e7e7,
f97cff003ff813eff5,
f6ffff9f602fdbd7f6,
ffff3effc01fd809f1,
f87bc0401f9ffbfff8,
f980bdfebff80ffdfb,
f57d7e402f37e80ff3,
fe7e7ee06fa7ec01e3,
fb7e02805037dfe1f9,
f6fbff200f8fd011f3,
67efdbe6fe7c3ee0a,
ff7e7f5fcfefe809e3,
fd7d80a0401fb7dffa,
17fbfffaf8793cbe8,
f9fe427faff7dfebf0,
f8febfc04fc7ebe9f9,
fcfebf1f1fd80bd008,
37dfcbeeff7f3cbf9,
fb807f3f5fefefe5fd,
f87cbefeafb7d7c7f8,
fb80bfc0207fefcbf4,
8053f1fafe7e801f6,
fc803f415fbfdc09fb,
fb807f5f7087e411f6,
384025edfbfe3f7ea,
f980ffa01fb7cff5fc,
fefebf7f6f884bf5ee,
77dfe60c027d7f802,
fd7e8220efcfe3f5f8,
fc003f9ff7f40800,
77dbebfb040041df7,
f9fc3fffafcfc82002,
f9fd809fe02fcbf1f1,
fe7d4040301053fff8,
fd80bf600057dff3fb,
fd00ff5fefdff819f8,
fafe3fdfffbfdc0401,
83003fa000500401,
f87fbf5fef7ffc2202,
fefe3f20bfdff3fbfb,
ffff8320cfdfe3e7ff,
f980ff5fcfefd813fc,
4fcff7f7fe007ee03,
fd7dbe805ff023f7f7,
fe803fa02fc7bfe002,
7ff403fbfefe3ebfa,
ffffc33fefe7f3e9fa,
7cbfa0efb7dff7f7,
fffe3f3feff043e213,
47f7f3f7017ebddf7,
7e3f403fc003e7fb,
27e409f7ff7ffca03,
7ec05fe07fe7e002,
2817f1f90281405fa,
fa7f40408020180604,
1001f9077d80dfd,
20141a03047effdf9,
fa00803f8ff7e7f000,
fefc7f604fe013f5fb,
701ff20f01813f204,
fb810080ffd7f80001,
ff7d80fff028040404,
97d809f8fe01411fc,
3fdbf1fafb7dc15f7,
fffcc13fdff7dbea00,
fafc80dfafa843f601,
ffff3edf509827edff,
1fe802030180017fe,
fb00bfa070280c05fd,
fe817f5f4ff01c0ffe,
fdfcfeffdfffe011fd,
2004000e00ff401f9,
7e41410fbfeffe02,
fa803fbfcfbfec21f5,
a7ec07f302fe7fbfe,
ff7ebfe00fd013effd,
ff01bf408fbfd7f3fb,
1ffc01f40200febfb,
fb7d813fdfa817fbf4,
fbfcbfa06fe7e3fc01,
2813fe05fe043f60c,
5ff7f7fc01ff3f601,
47f40dfdfb7d3edf7,
1ffbfe01fd7cfdffe,
fd80c0a0601fdc0004,
6043f7f90001ff602,
ff81bf000fc7f011fb,
17f405fa07fdc1206,
30100e0204ff01202,
fa7fbeffbfa8140ff9,
fe405ff000400df7,
30100a0c00ff00c08,
fffd81c09fd7f40e01,
3fe007fb037e3fdfd,
4fe7edff0101003f3,
181001fbfe0082205,
fc7fc08000081bf3ff,
27d401f90083bf7fd,
fbff80bf6067f40bf7,
7efedf6038140bf9,
fc7ec0807fbfe40201,
fe0240c0501837fe06,
fd7f7f5fffd0040ff8,
fbff00201fc807f200,
fcffc1602fd8040406,
ff813f3fefc7f42004,
7803f402fc80bf407,
fdff411ff020180c02,
7f0000200813ee01,
5ffff2010080bfbfb,
37dc0e05027ebfbfe,
fdfd3f40afe7e80200,
fe3effdfc033f005,
67f80c01fffe7f804,
fdfe7f004fc7fc0a04,
ff7dff80600803e201,
ffff81007ff01bee08,
2ff007f9ffff7f3fd,
fb81ff80703ff3f9fc,
fdffc0604017e01007,
fe7e80bf7fc01c1007,
1817f607ff017f204,
fcff80608feff7f1fe,
fe0180ffafcff00c08,
27eff9f7fd7e40c07,
fe00ffdf8ffff7fc04,
27dffc01ff803fbff,
100bf20303823fa09,
fe0081003017f80bf7,
100c0a0700ffbf1fd,
fb80ffdf801fe7f406,
1ffff9fcfd8200e03,
fd7e407fc01febf3ff,
47e411fbfc8000fff,
fcfffee01fcfe7efff,
4fe7efff00fdff3ff,
17f01203fd7f7f3f8,
fb7ec0a04fe80bf400,
1fe7fffd0200809fd,
fdffc0808fe827f608,
ff81c05fb00ffbf804,
fd00007fa018180ffb,
141007fd8000a06,
fd80ffbfeff02401ff,
fc81ff000040000008,
fdfeff3fe0000fedff,
fb817f7fd027f80c06,
ff827fbf7fdfeffdf9,
47ec07fbfe7fffdfe,
40200c06fe8240207,
fc7f0040504ffbfffd,
fd007f608fe7ec0402,
2027f3fa04ffbf206,
37f803fe0400803fc,
ff7ec11faff00ff9fa,
ffff805fe0301ff3fc,
fc8080df9017dc0ff7,
2807f5fd047dffbf7,
fb803fffe020240e04,
fc7fc0403ff7f80200,
fc00401fcfe0000a04,
fd80c0000038081002,
3027f5f9fcfeff602,
fe8140bfcfefe3fffa,
ff7e80e07fe007f406,
813fbf8fe81bfffe,
fe808080602fe00203,
fd7f4020600ff00800,
fcff01007028100dfa,
ff7f7f8000081feffb,
17f00001fd0080205,
47fbf609fbfebfe06,
fcff3f80804febf408,
1ff40600017e7f209,
2018120604ff00a06,
1823f4070181401ff,
7ec0000feff7fff8,
2feff9f900fec09fa,
2ffbf1fbfc017fe07,
fc7fc0e09027fc0bfa,
fe80c0206fd817f3fb,
2ff401fe047f7fe02,
27ffee07fffe803fb,
ff7f001fd010080bfc,
2023f5fd027f81006,
fc7dc0ff8fc7f80e07,
37e3ee07fc023fdff,
fbff3f403fdff401fa,
17dff804fc7e81204,
47ec11f7fe0040dfd,
2807f5f8007e40000,
ffff40e0304803fc03,
ff7e81201fe00c07fa,
301c0c02ff017f606,
28240004ff7f3f7fd,
fe81c0bf9fb8080807,
1ff7effeff7f3fe04,
fe7f006000480bfdfb,
fc7e007fbff7e40407,
feff7f808fe7fbf403,
fffe40a07fd8200e08,
28200402fc0200609,
47fbfc04028140dfa,
17ebf008fdfeffdfc,
17e7effe03017f9ff,
ff807f9fd0001bf801,
fe81c080802013f800,
fdff40601fb813fc08,
300011fcfe81401f8,
fdfec09f702807f1fe,
1c09f8ffff811f7,
fe7fc0bf8feff3fbf7,
3ffc0a080081c03ff,
fefee0703ffffbf8,
fe7dffa05017f7f1fe,
1023f9fe007fc0002,
fcff40bf7ff017fdfc,
1003f007ff7f40400,
4fe4080602ff3ee06,
ffff0040603fe40003,
fc81ffa090202007fc,
3ff801f8fe7f411fe,
807f800ff7fbfbf8,
1823ee00038180808,
fc80003fc000101207,
fc7fbf401000180e05,
fd7ebeff80481bf1fe,
fd803f80702fe809fb,
4fe7f003027e80203,
fe823f1fd037e3fc05,
fd00c0806047f01000,
fc7e81001fd8200207,
fc00bf1feff7f013f7,
fe7f80bfa0400003fa,
fd807fc04fcfdff3fb,
17dff7fb040080608,
47fc0c06008080405,
48080006fd8180e04,
fe4120204ffffe01,
ff827f1fa000100808,
27e3f9fefdfebfe09,
fc0240dfdfc7e801fa,
feffffe010481807fd,
fd8000dfdfc00c0c01,
ff01ff7ffff81ff802,
fd8040dfd020040c08,
fe02007f8fe8080401,
37ebfa03007f00607,
4ff807fbfd00009f8,
ff7f7f207fdfe3f807,
1823f605fc7e81203,
7e40404037e3fe09,
81802070101ff3fd,
47eff7fc01fe00606,
100a01fdfffeff8,
fc81bf200fbff40806,
80c09fd81013fa,
fc7effdfe027f3f008,
fd01c05fe048100205,
4fdffbfafdfe40df8,
fd81c03f9037f7f9fa,
fc810080102fe3fe06,
3ff40004fe00bf5f9,
47e80809037fc01f9,
fc01c0c06fd0200a02,
7ebf800fd7f40209,
20180a01fefe805f9,
fe818120700003fc09,
ff81ff40700827effd,
181007faff0040c03,
8240bfcff01ffdff,
300c1201ff00ffe04,
fc000080500fe3fbf7,
ff817fbfd0300bf200,
fd80bfc08fc00001fb,
2fe410050181ff409,
38200008fdffc01fc,
1023f7f9017e7fe04,
200c0a08037eff7f9,
fcfe80201ff7fbfff7,
fd8001208ffff405f9,
fcff80c00feff3effd,
28040a030281c0a09,
181ffc04fd7ebfe09,
fffe80601ff00bf9ff,
2fe7f60001fdc03fa,
ffffbeffcfe023f800,
fdffc05f9030040000,
fbfe3f3fafd7f00008,
27f40dfefb8180c00,
fefefefff027f7f207,
fefec05fd01febf5fd,
fc0240ffb018001001,
27e80403fe01ff1f7,
3007fffdfb81bf802,
ff40bfb02803f604,
fc7e3f1f7fb81ff407,
fdff3fa000101c13f8,
fdffc0c070201407fa,
2ff7f3fc040200008,
18100ff7ff7dc01fd,
fd823f809047e809f7,
ffff7fa02fe7e3f7fe,
fd818000201ff00c05,
fb8140dfdff00413fd,
fefe80602fcfe7effb,
ff7ec06040380403fd,
380ffc010401c1001,
7f405037fbee02,
ff7f809ff0380bfa07,
27f00bfc01003f3fc,
fc013fbf8ff8200008,
fe7f80e01fd7dc0bf8,
ff0200e04fe8140e04,
3fe3f5fefc80bfffa,
7e80ff9027f401f9,
3810080601003f5fd,
2013f40401823fc03,
5017f203fdfe7f5ff,
2ff807f80001001f7,
7eff1fb007f005fa,
fb807f9fdfc00ff807,
4ff40404fd01003f9,
48180c0402803fa05,
fd7e7fe04fc0140802,
1013f40300ff3f004,
ff007f5fffffdc05fe,
ff807f0010181ffc07,
27fc01fd01813f5ff,
fd00bfbf8fc8040bfc,
100403f903017fe02,
ff003f3fc017e7f407,
ff7e00e06fe7f80dfa,
fc81ff1fbfc023f1fd,
8200e06fd01bee00,
fefdfeff8ff7f00009,
ff7f003fa01fe3fa04,
27e7f003fd823f5fc,
3817ee0702fdc0df7,
30100e0200817f9f7,
fd8040dfefe01805f9,
1401fafc00c05fe,
fb817f401010240007,
fe0040807020040400,
fd81ff1fa000140bfd,
817fc06fc82003fe,
fbfe809fa030001005,
fd014060803023f5fb,
fe803f1fcfdff41204,
fc01bf3fd037f7f603,
7e3fe08fb82009fc,
300feff90380c0608,
7f3f60402fdc0802,
2fe00a0703feff7fa,
102413faff8081009,
37e80df604823fe07,
fc7fbeffc050180204,
37e011f701817fe02,
fe7ebeffc02013fc08,
1013effe0381ff7ff,
fc0100bfcfd01c0404,
fc81bf5f9fb81803fb,
fc81bf2040381bf9fd,
38240a0402817f802,
481c0a040200ff5f9,
fffebf9fd038000c01,
7e7ec09ff7e7f3f7,
3ff7fe0803017fe05,
400411fd00fe00802,
ff0040202febf407,
37f3fc07047fffc07,
ff7dbf205fcfe7f405,
37e80a08fd82c0802,
27e7f9fb00817fffa,
201bfbf900033fdfa,
ffffc100afd7dc07ff,
ff017effdfe7f409f9,
fd7dff40f03fe40606,
fc7e3f3ff0100c0bff,
fc00009fbff027fc06,
1033ec00fd81ffffe,
fb0000dfd0500ff405,
fcfe41000fbfebeff5,
ff7d7f606ff0180fff,
ff003ee03fdfe80df6,
37cbfe01058080605,
fb007f3fefd83bf60a,
382809fbfc027f80c,
10040ff80701801f8,
ff01ffbfffd013f3fc,
ff7d7f603fa80c0403,
3027ffff027dc01f9,
400409fffb7ec0602,
833f005010000c02,
fd03801fb028200df8,
803f809fe7fc07f6,
fdc03f7fdff80a03,
fc7f40bf505ff3effe,
381bfa06007f00804,
ff80001f6fc007fa08,
fd80fee06ff80bf3fb,
7fc0203fb823fc05,
fb03408100181413fb,
2ffffdf5ffffbe60d,
fe7f80211fffe001fa,
fa803f400fefe801fb,
fd01003fafc7f40001,
ff017f80fff7ebeffa,
27dc09fafc0040200,
fdfec080cfb00bf003,
fdfe3f5f600fdbe9f2,
fd003f20503847f00a,
303ff801fd82ffbf8,
fb7f3f1f90803ff016,
ff7fbf805fdff3f1f4,
fd00bf5f9ff80bf001,
fc7c00e07fc8080df7,
7dfe600fdff82605,
fb00c07effd84be406,
fd7fffe03fd7e3fe10,
fc84bf1fa0b01003fb,
fe0180a03027f40403,
fe7dffc0201fe7f60e,
1853f8030181bf801,
fe7f807fd027dbe407,
fc833f7f9ff04bf5fb,
2053f800037d7f5fd,
fc7f7ebfbffff3fbf9,
77d3f000fb80bf806,
ff007f1fe0a00beff3,
9ff005fdfd7f3edf1,
fcfbbee00ff803fe09,
fd7cc05fafe7dc07f8,
ff7fffff4ffffff415,
823fe0dfd7e81202,
fe80bf5f3fefebee0f,
ff7e80008037e7ebf6,
2ffc07fcfd003fbf4,
fd807fffa007dbfbf8,
fb7dbe9fd02ff3f200,
fe7e3fbf3fcfdc03fe,
fc7e3e409fffdff3f8,
fafebf2ff7e7fffe,
fd803eff8fb023ea08,
f800bf7fcfb0040bfc,
7c7f9fa0100fe409,
fb007fe020080c05f3,
f9803f5fa007dbfe00,
fefe7e401f8fdbeff5,
ff7bbfdfdfc80ffffb,
fafe3f9f6fd02401f2,
fc7d7f1f9fefdff9ff,
fe7f3e60202013e9f6,
fd7f3eff0017ffea07,
7a7fbf3f97e401ff,
fe80003f9ff0100ffd,
ffff3fc03fbff7fffb,
fe013dffefd013fdfc,
ff013edf1fb7f7edf7,
f6ff403f8fffd009f2,
ff7c801f4fffe3f1fc,
fcffbf9f6ffff7fff9,
17dbf5fcfcfd7f5f4,
f9fabee02f97f001ff,
f9fe7e9f4ff7e7ebfa,
fd80bf7f1f97e3e402,
fa8041200fdfe00ff8,
fdfd7e7fefb7dbde00,
fcfcfea07fe00407f9,
fcfdfebf3f7fd3e9f9,
fd00fe9fbfefebf3f9,
f8007f20bfc7e40600,
f8003f5fffb79ff9fa,
7c7fc03fd7e7e5f7,
fbf97fbf7fc7fbd9f6,
fdfdbfa02fe7fbe206,
fd01fec04fb813fffa,
f7ff3dffd0381ff200,
ff7c7fdfbfefcffdde,
ff7e7fc06feffbf3f5,
fabf3fcfcff3fbff,
fdf9bea02f77e40e00,
fffbfefe8fd01fe3f6,
f97c7edfafbffbf401,
fe027e3f4ff803eff6,
fe7f3e5fcfafefdffd,
ff78bedebfb7ebf405,
fd81ff9f9ff7f3fff7,
fffd3fbf3ff803f5fc,
fc817d7f0fd00ffffb,
fb00feffbfe7ffe1ee,
f77ebe3f3f67d80a02,
2fd3e5f5fe7dfedf5,
feff001eb007e3fdfd,
47f403f5fbfdbe5f8,
f4787da00f8ff3f9ff,
ff7a7fbfffbffbfe00,
f8fdfea04fb7f7f008,
fc7f40a08017fc0a02,
fc7fff3faf7803e00b,
87afe80af882c03f4,
f8fb3eff9fa7f7edea,
fb813edeffb7e01ff6,
f303bf20ef8fc4100e,
fbfcbd9f7fcfa7dc02,
27d3e00ff7fdbf20d,
f979fdbe7f9fabe7fe,
f5fcbf7f70683fce09,
f4047e7f4fc0440bf9,
f57d3dfe90782fda08,
f7fd41609f57d7d9ed,
f9fd3ea0205fcbefef,
fa793d9f1f47f01df9,
97b3d9f4f67d81808,
fd7c3d5e8fa847f9f3,
fbf9be20cf57c7d412,
fe833d7f208013d9f0,
f5fcfe7f9fd7b7f006,
fffafd5f3fe79bd80e,
803817f1087c00df9,
7fd011f2f4fcbf3ff,
fb83bc5ea0a037e40e,
f9033e9f4f67cbe1ec,
f5793ddeaf8fcc07f5,
77bbe5eef47fbf7f3,
f67ec1de809ff3fffc,
583c0deaf3fb3d9f4,
f2fbbd5eefb020140b,
f5fcfe80f08fbbf7ec,
f77cfebfbf783bf20f,
f4830360c05030160b,
fc043f3f4fb843ec0b,
fefefd80dfc80809f3,
fd7dfe7ecf67abfbe8,
ff003e9fbf77b405f8,
f17ffde0cfcff40c00,
f77d401f6f7f9fea05,
2fcbe40cfa7efce04,
f4fa801e4fc7e3cff6,
7c3f7f60103fd60f,
f981fedf7fe83007f6,
f27ffc9f302837de10,
7effffff8fcbf9f0,
fe7dbfdef007aff7ee,
fdfbfe1eff47e001f5,
ff7c7d1f1f27dc1a01,
fbf97c1ebfe023f7f2,
f87bfedfff67b7f40b,
fa833d7ef0600fd5ef,
fb7efeffdfb7f7d401,
2fbbfde0fbf9bf208,
ff02c03f7fdfec03fb,
7c817fff57c7ea04,
fc83be3e5fe833effe,
fd83ffdfff57cff3fc,
f7793fbe3f57c803fd,
77b7e9f5f5fefedfa,
ff003f304fdbf1fc,
6ff81be2f179bfdfc,
f77cbc1fbf38140805,
f4fb3ea02ff7eff3ff,
f9fd3f9f9f27fbe807,
f70180a0c0000819ff,
fa803d7f5f87f3fa0c,
7e3d40af4ff00def,
f1f8ffde5f67c3cff2,
f783bd7e8f6fc3fbf1,
f4013dc0af2fa00ffe,
f9797d3edf7fd3ce04,
2f9be60af77afd3fb,
f3fcff5ebfa78fe7ef,
f1007d5eb01023bc09,
2837d3e5f582c1bef,
fa7a7ede606823ca08,
f57e80602f4fb3cff1,
fb7bbf5ef027d3cde5,
f87bfd5eaf77b403ef,
fbfd9eff17941602,
f87abd3f0f3847d5f0,
fdfd7e1fff7fbfc80a,
f502fd5f005037dbee,
79bfde9f4793c80d,
2fcc03e6f67abd60a,
83003e2027d01bee,
7b801e2f67b7de04,
f902be1f2fe82fc203,
f102be3ebf1ff7ebef,
f8f97f7ecf1f981df0,
3fafd5e2f2fbfd7eb,
f17d3fdf0067b7d5e6,
6003fdeef67cbfbf0,
f97bbd3e4f87fbfe08,
f87cff20100fa7dfe6,
f7f97d7e9fa003e60d,
f901c180cffff41801,
ff003c7f1f600bee09,
1ff7d60ef501411e9,
f6f9ff7e6f7f9fcdf1,
f580fd1edf279409e8,
f000bc60ff5fb3f605,
edf9fcfeaf1fb7cc08,
4f9fc80ff37bbbc05,
f07b3f5daf3fb3e1ec,
f57f3dbe90083bc40f,
283bd5eef783405ed,
f97b7ddda0783bd00d,
f57e40203ed787d7e4,
fe7a7ffea00797d3df,
f779bd9eaf97b003ea,
1f9bbbdcef7b01603,
f777bbbe8f383be1e4,
fdfbbc404f2fa3d00d,
f603fcfdd0700bbddc,
fefc403f0f17bbc602,
3f97f1dff6783d80f,
183005ea0176c07ec,
1f9407e5f3fa7d7ff,
f4037cbe603033d7ff,
f6833cfeaf37e7fdf0,
f677ff3dcf378005e7,
7fbfb9dceefa3e1e0,
f4fd40be9077bbdfec,
680c09d6edfc3ddeb,
f5797b3eaef8080606,
f3faffffe017abdbe7,
fa7a7dbecf6817d60c,
f581c160c018101603,
fd00bcfebf3807fc11,
fefcfb401f1ff3ffdc,
f2793edd6fff8ba5fd,
fbfffc5e8eb787fbf7,
e9ff7c802f2fd00dfc,
f2793c5f8f2f83c3ff,
ff777b601f07cbbbfd,
ec787f7d8fc787f7f7,
f17d7f1e4fe00ba802,
ff00bcde2fa00bfff4,
fc7dff9dc0080fae03,
f1fd3f9fcee78fc7e8,
fdfe3edd4fef7bcbde,
faf9fc1d8fefdffbf9,
fa7b9d0e9f9007fd,
faf4fa5e9f3827e7e2,
faf83c7faecf83ca01,
fd00bb1d9007ffade0,
fbf93e7f3ec78fbfff,
fffa3f5dafb73fbe02,
ff007f9e2ff73ffdf5,
fe77005e6edf63eff8,
fc80bc9dbfd807c9ff,
f1817edf8ef7dbedef,
f2f4ff3d3edf9ffff5,
fffb5ddeb7e7ebd3,
f27eff7e501fd3e7f8,
17f805d4ebfebeff7,
f27aba9e4edff7f802,
f0fa7f3fffe797e5e2,
f977ff3faff7eff204,
ff0081603fe7f40bfe,
fcff7b5f5ebffbf402,
47dba40ff602bffda,
f579bf3d7fdf9b93fd,
fa00fb9e9e577813f3,
e9023b80cf57d00409,
effb3d5f1edfa3bdfd,
fff5fc00deefdfb408,
f0fb3ebdbf9fabfdf1,
f67e7e5ea05833ac0e,
fe82fd3e9fa83405f2,
7cc01df06033ae0c,
f4fe81409f0f73d9e6,
fb7d3f5d605777dbe1,
f8fb7d1ccfefc411f0,
27a7b5cdecfa81608,
fa773afeaf403fe7d7,
fcf93b609ea773d40d,
f902fbde10780fabde,
fafbff3f6e0fa3ac02,
ff7abebd5faf77da0b,
403815ec04f2807f1,
5f7807e6f0f87e408,
f783bdfdc0583bda08,
f682bebf1ee7dfeff7,
f376befd7e978c07f2,
5ffbbddaebfc3e1c4,
f4fc813ef067cbe7ef,
682007d9ebffff3f3,
f5f9fb5e9eb0200e0b,
ec7a3e80704fafedec,
f7793dff1ff827dc0a,
ff82c140c048281408,
fb827c1f5ed827f60b,
fbff3a800fc7d7fddc,
fb7e3f9de00f8b8800,
180bb3fae5763ec04,
ef7dbb200fc013fff6,
edfe3f006ee7a7b7fe,
ff76bb000ed00fb5f7,
eefd7ffdc037dc0005,
fafec0bf8fa80fb600,
ff00ff3f9020000607,
ff017fddd01003aa03,
fcfefebf7ecf77f3fa,
fe813f7cdfaf63ede2,
3fdbb7c8ff81fee06,
fd7db9bc3f07d803f5,
2f67b5f8fb8080fdb,
fe7a3b1f7eaf67ee01,
280bb7daff80bc1dd,
fe7dbfc04e2fe7b203,
ff7e403de0276bea03,
fa807edf7fc7040608,
f9f6c01f6ef7540605,
2003efe1fa7ffeff5,
fb80c0606ecfeffffc,
f6f67fde1eaf940406,
1ffba3dce981815c9,
fb80fe9f9008140e06,
7d801dbebffffc02,
fb7dfb3faf0fdbf003,
f07e403f6fb7dc03f4,
fcf800c05fffd80e02,
fe00c0800fb7d007f8,
fefd7be03ec7dc0602,
fffebba04fc807f9e8,
fefebf7d7fe78b9bfe,
fd00fddf9e47b3fff7,
f6003d807fefe3f3ff,
ef7effbf8f1007bbfb,
fe77bd006f4fe7c1fd,
ec007f5eafa7f7fdf8,
7f3f1faff80be204,
ff00ff9fcfb81805f8,
ff7e3fddb02013b001,
fd00003feeff8801fb,
fd7e7f7d700fb3ffd8,
fb7e7d5d1fefe3fdfa,
fffffc3c8f5fec09ff,
fcfbbcffcfd817e9ed,
fe00bd7ffecfb3fa05,
fb80bbbe402813dbde,
feff3f5f6e87e7ac02,
fe7efedf1fcfa3fa04,
81003fcfff3005f7,
17abf7fdedfbbedf8,
fd813fbe70001bfa01,
fe013edf8eb7ebf201,
fdfb7f5e7f078407f6,
17f7bfdaec7e3e9c9,
ff7e003f902fdbf1f6,
1ffff7edf7ff803f8,
7ffd7fdee007fc07,
f27eff3ffffff3f5fd,
fbfc7f7f8ff7ffee06,
1c0205ff00809fe,
fcffbb9f9ee7f80003,
fafe3b3f2077d3f1e8,
5837f5dff6f9b9fed,
f9003ca0be979bedf4,
f2fdbcdf6047cc05f6,
ed83419f4ebfc3bbf8,
fc76fd3f4f2fcbc9f7,
f17fbfbe8fb02bd9f4,
77efe60cfb7cfc9f3,
7cc1a0afa7c003f4,
f67d3dddbf9fcbb7f4,
67dbebf8eef6c1a02,
ff7cffbd6faf9819db,
fa017bdcdf6fd7edf1,
fc00bbbd2f203be5f7,
fa793d401077d7ede4,
fdfc3c9f6f079017f0,
fafd3c1e0fa7ffcde6,
fc82ffdf4e683bb400,
fb80ffde2f8fb01df3,
fa7cfea0dfb74801f5,
fa7a3fa10ea78fec09,
f8fd805eefafc417f6,
77cbebf2f27effc09,
fb79bfde9eef7bfff4,
f9fbfb3e3ef7cfedd6,
5fdfe604f97d7e5f5,
fafd7fbe4f47aff1f4,
fffffc80beb7d3edfa,
ec013f9f7fb03be60b,
7b3e1f4f6fd7e9ef,
f77ebf7f4fc7d7e9f7,
ff7e3c1f4f07d7fbf6,
fd7d7d20502fefeff3,
180fe5e0fbfb7b5f4,
fb80ff206ee7dff3f7,
f6fe7ebfd027dbf5f8,
f100c09f6f5fe7b5f6,
fbf7be801fc7e3c3f8,
f17fbebeefc017eff8,
2fd3f201fc013d601,
20040604fb00c05f6,
fafd3e9dd0300fc802,
37e7f7f7f0f9c05fc,
f8fdfe5e5fd7d805db,
fbff3d3e1fafd7f3f9,
fdfebc7def5807fffb,
fb7bbddff01003ebf8,
fa7e3eff8f47e40603,
fb813bbd900013dde6,
fb00fe5f9f17ffd203,
fbff7e3eefcfa80a00,
fd003ec02fcf7007f3,
fdfd3f604f37dfebf8,
f9ffffdf6fd0080df7,
1007f1f7ed7cfdbfb,
fbfbfddeef079009f4,
2fcfc5dbf27d3efdd,
1ff7fbfc027dbf1f5,
1fe3f7ebf47e3f1f5,
ff7fbdc06f47ebf408,
f2febe9f8fc003ea03,
fefcff1f8fbfebea07,
fa027fe01fcfeffdf9,
f97e3cff4ed7f00400,
f67cfd3fe03fb3e9fa,
2017efe6f8fabcff5,
fe817ea03f57dbddf8,
fb7b7f20704fe7f9ef,
f480407fdf17d3c5f5,
faf87ee04fb7efcdf1,
f37dfe7f9fb017e7fa,
1fdbf209f7813ec05,
18080c05fe0080dfc,
f9fe3e9e7ff00bd207,
2fdbdbeff2f900df4,
fcff3ebecf5fe40fe2,
fdfdfc3e2f9fefe3fa,
f87efe1e2fd8180beb,
fd7eff1f702fe3f9f7,
f97cfefeff47d40a00,
fe7f7c5e202813e7e3,
fb81bebfaf201fdc04,
fa7dfe7f6fdfec0c04,
f7013e602f57900bfb,
f67e7e202f57e7f1ff,
ff00beff3f681403ef,
1813f9f9f37cbf008,
f8fd3f1f5f97a409fd,
ff7dfe1e4f27ebf3e7,
37efd7fb017eff7fc,
fb7e5f8fefc7f5fb,
fcfdfea02f0fb7d600,
effd7efeef7813f402,
1febfbf7f8fbff200,
f9803ea01f77ac0bec,
fd7bfcbfaf07b3fe03,
f2fefe1f60b7b3effb,
c063f7e9f77a3e3ed,
f7803fc17f37f7d7f4,
fdf9bf5ef0b7c7f3eb,
f90642df0f4ff3cbf5,
fb7b3f9f0ff7bbd7ea,
f37e003faf9067ddf3,
cffbdc16f17bbf7f0,
4fd03418f67cbfff1,
f7fd3ddedf87d7d1ec,
e7ffd9e6f97b837fb,
fe7bffdf5f47e835e9,
f87e7e9f0f87cbc3f1,
f6fcfe5f0fc86be3e7,
fa7dff5f80cfc3dbfc,
17f7fbe9f47f831f0,
f87dfdde7f9007fbf2,
ff85bfdf2f505bda00,
fbfdc09fcf8fe82ff2,
f37c7c81bf4fac07f1,
f57f3fa18f27efedf7,
f97cfebfaf3fb42be6,
c7bbdff0f7803f3fc,
ff803fef379c01ef,
f97b3e3f0f37d7e5ee,
cfdbd1f8f97c7e3ef,
f8f9ff9fcfd7c3e9f0,
f9fdbf817f3797d7fc,
f97f807e7f3857e219,
5fd7e1f2f879bedee,
f87fbebf4f2fb7e3e9,
fdf9bd3f0f2fa7e5f3,
f800fdfe4067b7e7fc,
402007faf57dbefe5,
f8043f40dfcfebdff2,
fdfa3fded037d7fbec,
f70140df8fc82bf1f7,
fbfe3fdeefe7e3edea,
fd0400000f9817d1f1,
27ffe80af6fb3ffec,
77a40e0cfb7b41ff4,
f37d7d9f7f779fefef,
3027d5e9f77e80e0d,
3fd009faf67f021ee,
f603bf5eef2fb7e1f7,
f7853ddf400013d9ef,
f9008000e0378fdffc,
fe827f5ecf5fe417eb,
f7fa7e7f2f7833fbeb,
284803f2fa033da10,
fa843fc00f8ff80fe7,
f7fabde07f57c01bef,
f47efe80dfdff3da06,
f7fa82803f87b811e8,
27bfe3f3f9ff80608,
2ffffa02f7fc421f2,
f77a7e7edfafc7e9f1,
67e3cc11f77d7e3ed,
f7fa3e9fe00fa00def,
8050020cf6fafdbfe,
fa0380beaf701bda08,
2807e1f6f47a7ddea,
f37ebdbe8f8fb3d7ee,
4faff1f7f9fb815e9,
f8017e7eb077a3e1ff,
703015f3f580bfdef,
fb80c0005fc803d5eb,
3fcfffe703fbffdeb,
83013effb003fdf1,
f77c7f7e5fffb7fbed,
fb81c120afb84bd9f1,
882be20ef47980be8,
97a41a0ff97a407ee,
f8fdbcdfdf37b3f7e4,
302fd5f4007f8200e,
17cc01fef600c13fa,
fb82bf5faf97bfd9ed,
fa823e7f40502bcff0,
f88180c0c0977bea03,
57f805eafb00c1fef,
fcfbbfff0f201c05f7,
8480df4fb037f9ff,
f60380007f98181bf0,
f4fb3d813f8fd403f2,
f500bee0dfc7fbe3f7,
f8fac15fff37881fee,
4fa3e7effd013fbff,
28041402fcff3fdf9,
f2fc3f3f7fa7bbebf9,
700bda0ff67c7edf8,
f47c3f401ff7b40bf4,
78180810fd7bbe1f4,
2809e8f7843e80d,
47f7edf1f4fc7f3ed,
f77d7cde2f5fafd3e9,
1fb7edf4fbfb3ffed,
f681ff1f20379fd006,
482bfffffafdffbef,
f87fc0003fa00fe7f2,
fefa809ee027ec0fea,
20400bfafc027f9f4,
f47f40be501ff3fbe8,
fa86403fcfc827ddf4,
782ff005f47d3fde6,
17c81608fdfaffff2,
f4fbbe1fdf2f9bf3f2,
37fbd9eafe7f40c0f,
47bc11f7f380813fc,
fd85ffffdf3fcfe9fc,
fa853e9f6fd017ddec,
fc7fc0610017b3f3fe,
103801f0010000ff1,
f9fa009fdf3ffc03f7,
501c0ffafd81ffc04,
f9053fffdfa8001bf3,
f3fb7da07f7ff407f4,
f8007e60ffc817ee07,
fafc02dfff2f9c05e8,
1fc3ebfc000080c0e,
18001401fc0080ff1,
f5fcbf605fbfd3e5fc,
8fd7ce15f37ebe1ed,
f37b7e00003fc819f7,
906bfe10fefa7dde5,
fe8380fe9f4037e608,
17f3f1f7f979fede5,
f9f9fbbf4f679bdbef,
47b807ecff7b41dec,
f9ffffff302fffd7fe,
fe01c07faff7ec0bfc,
fd83bfe0300803e1f7,
ff7dbfa01fdfd011f7,
300c09fcff80c0fef,
f7ffff401ff7f801fa,
fd8180406fdfeff9f6,
fe7eff003f97d40001,
3007f9faf87dc1ff6,
1803f1f8fd7f3f3fb,
fefebebf0007f40e09,
1fcffa0300017f003,
fa837eff6fffdffff7,
fb0400df703003f3f5,
ff7e8081000ffff402,
fbffbf7f80281007f9,
ff7cc05f7008340e00,
fa80bfdf602fec080c,
f8823ec05f901bfbf0,
ff7e7e003f7ff417fa,
fa80bec00fe80bde08,
fb7e81bfeff7ec05f7,
17ffebf202017ec07,
67effe030300811ef,
fa7f3fbfb027dff3fe,
ffc03fbfeffdf8,
fbfebf9ff02fec17fd,
402c01fd00fe7f1f6,
ff833f9f3f87ebf203,
fbfffebfafdfd7e1f5,
fafefd7f5ff7e7fff3,
fb803f3fafd7f009fa,
fb7e00602017effdfd,
fefe7fc01fd823f606,
fb00ff40002fe3fff7,
180201037e7f402,
ff807f002fc023f9f9,
fdfdc0a02017f803fc,
403403fd00ff3f9fb,
1fe3fdfefd80011fa,
fd01807f6ff7e7fe07,
fe803f007fe00811fb,
ff003eff6ff7fbfa0b,
fd7f3f40201ffc0ff8,
10200ffd017ebfbf7,
280009fbff7e3f9fc,
2fe80a01fe013f7fa,
fd823f5fffefeff1fe,
fd00401fc007ebf404,
7ec0004fc0100bf9,
ff02c0dff03013fc08,
fd7ec04010000403f5,
fd80805f6037f80a04,
fc7fc0bfbfffdff600,
17fc0200007dc05fc,
fd023ee03047ebf405,
20100805fcfe80406,
ff7dff80dfeffc0e01,
2000060603ff01001,
181bfa0100817edfb,
ff813f204fc80ffff7,
27e005fd02fe7fbfa,
fc00bfdfefb81809f6,
febf7f60101805f7,
fe01001f7fc7f00c06,
7f7fbff0380bfbfd,
807fa02010000602,
fbffc03fefe80bf008,
17f5ff02fec01fe,
ff3f807ffff00605,
3fe7f402fe80005f8,
7f40dfb017dc07fa,
3ff00bfe020080401,
7fff9fefc7ebf3f9,
4023f801037dc11fe,
ff01c01f9fc817f9f7,
400fee0202803eff9,
281c0bfc01017fa00,
1013fa02ff7f7f206,
3814000303023f3fa,
40241200027f7f807,
fec11f7feffbf801,
28200e070002011fe,
fe823ee09ff817f9f8,
fdfebf1fb027e7f1f9,
3fdc0c050400bf204,
1bfdf9fe81803ff,
fd00bfdfa02ff813fd,
1c07fd02ff7ee04,
38040606fb80c07f9,
fe7f3f205fc80403fa,
3fdc09f8fd003ee06,
fcfebf9fffd80409f7,
fc017fdff01017f600,
47dc0606fffeffe03,
fc80ff3f8017dc0a07,
1003f002fe803f404,
fe0180406027f401fb,
7fbeffbfcfebf207,
37ebee0301feff606,
ff0180a0003007fdfa,
280c1005028140a06,
fc7f7ee07fd827fa00,
4817f9fdfe80c1009,
fd02011fcfd003f7ff,
fcff4120302017f005,
401405fafc7ebfa01,
fffe80c04fc80c13fe,
feffff3fc0181c09f8,
fbff0080401003fffd,
2023f5f9fd0140dfe,
400ff40504ffc0804,
180402010201809f9,
ffffc0ff8fb80bf007,
ff3f7fafd827f803,
401ff3ff010141005,
ff027fbfafe81c09f8,
47ebfc01ff7eff3f7,
37dff801037ebf5f9,
fe7e00e030482411f8,
fd00c01f80381c03fd,
401411ffff7f81207,
fd7e80205fc80ff808,
fe8140609ff81bf802,
ff8140c050380c0a00,
301803fcfcff7effa,
7f401fb0281007fa,
fc80c1200fe8000001,
fe817f5f803013f9fe,
fdc07ff04ff40801,
27fff3fffe003ee00,
fc0180002fe8240dff,
47f00ffc008100c00,
17fc1206000140bfc,
fe017f3fafcff00401,
fffe7fc03fcfe7f402,
fcfe00ff80100c03f9,
fd00fee06fe013f3fb,
fe7f7f802fc003fe02,
fe0241000ff7fff7fc,
ff7fc07fd0181ffdf8,
7e411f90101ff1fa,
200ffcfc8140bfa,
2807f5ff007fc1007,
feff40605037ec0ff9,
feff005fefc00ffc04,
4807f609047ec1004,
ff3fcfdffc0409,
2fdc100600007fff8,
1ffbf003ff7fffa06,
48101201ff80c0c08,
ff81ff209fc7e3f203,
ffffff7f90100ffffd,
2807fbfefe00ffffa,
ff003f7fa017eff5fd,
27dc0e0502ff00007,
280ff1f9fbff80bf9,
fe7dc080303fe40202,
fffebf001fc017f3ff,
fbfec07fafe7e00bf8,
181811f8fe00bf004,
17f7fe08ff7ec0406,
fc823f007047efee07,
201bf7fafc8140602,
fc8180005ff8040e06,
2feff20100ffbf805,
fe7fc0a04fe01ffa05,
381c1008fd80ff3fd,
ff007fffafd023fc03,
100ff5fe04fe407fb,
ff7fbfe05047f3ee01,
30140808047e009f9,
fe7eff9fdfefdc09f8,
17fff207fd7e3f005,
ff7fc01f9fc7fff1f8,
fe7effffffd0140bfd,
80001fafd0000007,
feffff405007f813fd,
fd01bf5fa0000bfbfe,
fe80809fe000240009,
3823f600ff01c0803,
37f41006fe7ebfbfd,
fc7f7eff901823f603,
fc8181001fbff80607,
fc017f7fc0081809fb,
fd803ee03fe8180407,
fe81c0bf7007f7fff8,
48200607fd803fc09,
17f603ff7eff1ff,
fcfe011fafc80c01fc,
27e803fc017fffbfe,
2ff80bf8fb80c0e01,
fbff40004fbfeff409,
fc00405f7047f7f7f9,
fffe80c060001c0ffd,
ff00bf5f801ff7fff8,
201bf9fbff7e7f400,
fcffffbff037e80dfa,
37fbf209047f3ee00,
fbfdff604fd017f204,
fd0080df8048140608,
37e40205ff017f5fb,
febf9fcfe80bfa01,
fd00ff7fcfffe3ee03,
fc8080e04fe7f40804,
fdfe3ee00fe7f409f7,
fc7fc03f7ff8040ffa,
fd8000c01037f009fd,
27dc0208027f00004,
17f80c01ff00c0209,
fe00ff603fe00bfffe,
3fe7f00100027f9fc,
9f7fd82003ff,
201fee06fe817fff7,
47dff001fe01ff005,
27e40e07fe01013fb,
fffdff5fd03ffc0c03,
1813fa01fe00a02,
fb807fa03007f7f801,
fe7e3fdfd007fff606,
380c0a00017e409fd,
201404020300ffe00,
fe81ffbf90080ffc05,
2fe403f9fd003f204,
ff7f805fdfbffbf609,
7ec020401ffc07ff,
4003f401fd7e3fff9,
17f00005fb02401fc,
48000001fefe00603,
2813f3ff01fe00006,
fe80c07fafc00ffa03,
81ff9fdfc7f001fa,
3fdc0e06fffdff7fd,
fbfe80807fb7fff9f8,
1803fa06fc7f80dfc,
fc007f4010401fee08,
fe811fe03017fe03,
2ff7f401fd7ebf806,
ff7e00c04fcfe411fb,
2fdff602fd7ebf3fe,
ff0000bf7037ec0dfd,
fcffbf9fdfe007ee00,
3ff807f90480bfc01,
ff0140400fc80c0200,
fc7f7fbfffd7ec0ffb,
fe807f9fe037f80001,
fd7ebf005ff80c03fe,
fd7fc11fcfd7f40df7,
fcfdbf6060400ffffa,
ffff3f207ff7f00204,
fcfe40809040140405,
fafdffdfc03823f00b,
3fdc0a05fd7ebf9f9,
fd81c07fe000040004,
833f204fc7dc0dff,
fe7dc0e02fdffff5fe,
2fe40a0100ffc13fd,
ff827fa04fb81fedfc,
ff003fffd01ffffbfd,
ff407fd007dff808,
fbfeff3fb00fefee07,
47f7f60103017f201,
ff7cff00002ff009f8,
ff80bfdfa058040bff,
fe00ffc000380801fc,
37e7fff903ff3f207,
3fe80e04ff81ffff9,
100ffff6ff7e3fe07,
fbfd803fc02ffffdfd,
37cff7fcfe7ec0e0b,
fb007fffbfe80bea06,
381011fefe8040c02,
300409feff7fffff9,
40100204fdfe3edf5,
47cff608ffff3f805,
1803fe07feff3fe04,
fefebf5f7fb00fec02,
1017edfcff0201004,
ff8240e01007ec01fc,
fc81805fc01fdbedfb,
17dbf3fafaffbedfc,
2013fdfc02fec05ff,
fe813fa03ff80c0200,
80dfbfe02bf808,
fe7d3f1fcfe81ffc09,
2007f200fd00007fc,
100c04040201bfdfe,
400803fffbffbfdff,
3007e80801807f803,
fb81803fe01feffdf4,
fefe80005017f3fff9,
4027fa06ff7dbfe00,
100003f4ff80405fd,
ff7d80e0b0480803fc,
37bffe06faffbea01,
100bebfe0083c1011,
fd84bf9fefa81803f4,
fa807effd06033ee07,
ff00c07fd028040fe7,
fb7fbf8030281403fb,
ff7a3edf8fbfe805f1,
27dfebfcff00c1601,
fe80009ee0283c03fa,
fe033f807fc814060a,
fa03ff402037e011f8,
1ffbf9f7fefd7fe03,
27a00805fd8080a07,
27fe04fe803fa00,
fffeffc04fc003e803,
fd833d0020401c0c06,
282c05f300ff3f3f7,
482bf404f97e003f2,
600ffe01fefd3e9f4,
fd7fc0bed077ffee00,
781805fb0080be1fc,
f5fa3fe04ff0140001,
2fbc0a0200fe3e207,
ff7ebfc0201003f409,
fb013fa0d0300425fe,
fe81c0df2fb823dc09,
7f3f607f98081000,
faff7f1f7f6803e9ee,
fbff403f9fc00003fe,
ff7fc080bfc7e40801,
fb7dbe5fb01013e7fb,
3ff40002fe7f807ff,
fd7afebfbf8fcbe5fb,
ffff3ebf6fe813f00d,
fb817f7fefe82c09fe,
faff3e5fc0302bf808,
fd7dc0601fb7d3fbea,
fd7cbebfcff7fc0003,
faf8c03fef6fe7fdff,
fe79bfdf101ff80c06,
fb7d7efe8ff03bee00,
ff7f40201fe013fc05,
fc023ebf9058080601,
fc7fffff9fe7e3f9fc,
7afe802fe7ffe409,
ff82007fc02fe007ff,
813fdfbf9813f9fd,
fd807d3f90202bea0a,
f9813e802fb003e7ee,
ffffc07f7f9807fff9,
67b3edf8f9ffc03f8,
fcffc0be305fdbf3ff,
2ff3f60501fbfd1fd,
f3797ee00fa8200dfe,
fefabe607017fff5fc,
fc7fbf1fbf90140406,
f77f3f605000180608,
fe82005f4fb81fd00d,
fe7e7f1fcf7ff7f405,
fbfc3dbf1f37cbe5eb,
f801001f7f4807fdf8,
fafec0204fa7d3f9f7,
f7fd3e9faf8003fa01,
fd7e40c0703fcbe202,
f877be1f9fafdbcbf0,
f97dfe7ebfe80ffffc,
f8807f7ebfc00001ed,
f77d3d3f7ffffbe004,
fcfcbf9fcfc7dfe9e3,
f87bbe9ef0180fe3f0,
f8fa7edecf67e7f7f7,
783e5eefd7dc09f7,
f97ebebe0fc81ff404,
fd7fc07fff8813d603,
f7007f7f7007ffebf9,
f67dfebf8f97d3f004,
fef93e7f7f87d7e403,
fcffbfbf9fd7a401f0,
fe00801efff007f1fc,
fc013bdfcff813f7fa,
f801ff7f1fb7c3f1ec,
2fcff9fdfbfe401f6,
17b3edf4f8fbfedf1,
f87ebf7e802fbff1ed,
17f803f7f97b7cff1,
f1f9ffdeffe7fbf407,
f9f93dff901fc7e5f4,
f6fefebf1f5007d9ff,
f6023f400fdff005ff,
fdff3eff5fe7f3ddfc,
37bfdc0afe01bfe03,
fc007c1e9f1fdbcdea,
fb0000ff9f881c09ed,
7fc0804fdfdc0c05,
fbfeff1eff9fdfdbfb,
fdfb8060401fc3dc07,
f87a7dbfef87f3c7f7,
fbf8bdff503023f20b,
f5827f9f4fa02407f4,
effbfc9ea0482bec0a,
f9fc00a0af6fabebe8,
f87d3d5ea00007edf3,
f9797efeef2fa80deb,
fef9fe7f1fa7e80e05,
f6febebf0fa003e606,
f5fdc0805fa007ee0c,
f8023ddee05817f1e9,
f47d3c5eff4ffbea02,
fffb7cff9fb7ebfe07,
203011f901fc405e9,
ff80ffdfdf5007de08,
f502fddfe01023e803,
fb81be5f4fb797c800,
fafebd3f5f97bc05ee,
3fa3ededf5fb3dbec,
fe7effff002fbfe5f4,
401ff5f5fa787d9f1,
f57b3edfef60200c00,
f67b7d608007d7d7f5,
fa7e3e5f0f400be209,
f4803f409038101203,
f1807d3f1f87fff60a,
577fc9fcf881ff5fe,
f7fcbc1e9f5fcbc9ed,
f8ffffff1f0ff00bf5,
f781c03fef87d7f607,
f67cbe7f7f97d7d7fa,
fd7c3fffdff7ebd801,
fa7ebd3f2fdfcbdbf8,
f7f7ff5eb037efdffc,
f4fefd3f1f9febfbf8,
f97dbddeb007efc9fb,
f87a40e07f6fcfe3f2,
f2febb7ea04803dbe9,
fc7f3dbe8fafd003f6,
67d7c9e2fc7cffe06,
fafd3edf5f4fefebff,
f47dbfe08f4ff7e7f8,
fb7f7d9ebfc7f7e7f0,
effbfcdf7eefc7c9fd,
fefdfcbf3fc7bfe5fd,
3fec0df30575ffbf8,
4ffc01e7f57f7ee05,
fdfe7f5f804ffbe408,
f9ff7eff9f6fabd600,
fc7d3c5f4f2f9ffff4,
fe7b7bfeef67f3e7d9,
f6fe013f7fefebe5f6,
fe81c05f4fc7c7f3fa,
f9fd7edecf381807fb,
f6fdbbc0103fbbeded,
f7fe7e3f4f781bf9fd,
f6feff9ff03017fa07,
f481be1f6f502bf5fb,
6fa7ae0dfc84001f6,
fe7fbdbe8fa79babf1,
fa82bedf7ed7e41dfb,
f9037e80bfbfe8100e,
f37f7e9fdf1fd3be03,
177bf00dfbfcbcc12,
f181fc7ebfa7efe9f7,
fd7b3f5fc06037e40c,
ec837fff4fd83017f6,
f8ff3e3e80583fb60f,
fafa41c0feff73f406,
f6fdfc7de07fd3f3e4,
fd01bd7daf77e023fb,
5827b7d5f6ff81611,
fc7b7da09fd7e7f3f6,
f3fcfee11ecfebee10,
fc02bcbe00702fdde0,
f1ff3d5fbecff3b40b,
1bcdecfd7d3f60e,
80301ffe06f6c17f5,
87e00bfbf0fefee00,
f982809f308833f010,
fd033ebf3effa3c804,
f97bbcfeeedfa415f9,
5fc7afdfecfd7efd7,
fc7e42003077d7ebf9,
503c07ebf4fc3fdf7,
581be3fbf48341a09,
f380fe010087e3f5f9,
fd7cbf5f7f9847e810,
f802bf20a070481a10,
f0037cdfcef844180d,
afcfae04f984411fd,
fb7cfe7d7ff793bc01,
fa00bf9f0f17e823f5,
f604bfa07fb7e40210,
eb7d7e7f3ecfb7ba06,
375bf407fd7ebb412,
ec7e3dff3fcfd7fff2,
fa7c7eff00a01fe207,
f681fe5f8fa82005f3,
17c805d603817ac05,
f87d02810ec787e9ff,
fafe7ebe706ff7ebe1,
f97f7bbdc01fe425f3,
97f7afdafa7c4100f,
f8fc3e1fbf87f7e7fc,
f9fb7f410ea7efec05,
fc027afdf03807e7e4,
f8fc7e5f6edfc7a802,
3ff7dff6fc7abde06,
801829f60876005f7,
9fe7fbf9eefebee08,
fd827f7f608813f012,
f981ff7faec7bff3f9,
f6fbfebebe9f8805f8,
480bb5e0ef7dbe7e1,
fafd823fd03fe7e7f8,
484bfdf3f980401f3,
fcff7e1f2eb8482a0e,
eafebd21007fbbe9f4,
fc7cfedf40084be603,
10340807098440c13,
f5853a5f7ea84bf606,
1fc78003fa81c01f7,
f97dbe9d403f6fb206,
ff7ffeff3e97e81403,
f9023f200fa7fbf408,
ebfdbe603ebfe7a201,
74bf3fffd7ffb008,
ec7cbf3f0017dc0c03,
fafd001f60280bda01,
f9fffebf100007fe02,
280809d8008037e02,
f9fc40c07ea757e5f1,
faffbe9d7057e3edd3,
7c3b9d102ffc0e01,
1fbf8dddf67c00206,
fc3d9f0f9817fff8,
fa7e3f20ae2fe3e804,
fe7fbb7d8007ffd9d3,
f87cbebfeee7bf85ff,
fbfe7eaff7c7efff,
480409f30477ffe03,
37eff7f3e9fe403fd,
fd807e5f703813f006,
fc007fe00e8fd7dff8,
fd7b7dff3e1f7bfe03,
101b85d7e07fc03d6,
fa01413f0ffff80401,
81bf5eff601ff401,
f7fc7ddf6eb82809fd,
ecfb7ea09057c805fa,
fcfb401fe0281c0204,
37f800020481ffe04,
fc01fb601ea817f600,
7fef45fef702413f0,
f6fc7f5c800f47a001,
803e3efea7c01401,
f282bdbfff6814040b,
e47b7de00e2fcf9409,
470be001f700f880b,
e579bf3e5007c40201,
f7fe807f106ff7d201,
f8807ddf4018040005,
100805c3ff8035000,
f87e81c0ce4713e3e3,
fa01bedd805fbfd3c7,
2f93a1cd010081e03,
778f49cdf47c3fe0c,
178fd3e4f88040bef,
fdfdbe00cd1fbfdfff,
300b87cb00803d5ca,
fd7bfee03e6fcb4400,
4793f7ea01f8be000,
50001ff205f480004,
6fbff1efe2fc40200,
3007c9f007003d80d,
f80040602e27dfeff2,
fa79bf1e4d072c0001,
ff00345c1d601407d1,
f7ffc1be6008180603,
ff833f3e3f2003f204,
f378fd1f1e30281807,
e1fb3f00b06fb409ee,
ff7c80805008300dff,
823fdfe05830040e,
f98238600e5037ee00,
27e72a02f801c01f4,
fafcff3b40573b8a0b,
5fffe7efe17cc0c06,
fb01bec04fa01c0e03,
e07cfe405e0fcb7200,
6e7e601fa0277c04,
e4fcffbf6067d01408,
f97fc0ff30200fee00,
fa807e7f003803fe07,
581c15ba0100b1c01,
f9ff00805d9f0be7f5,
81003ca02fd7e7bf,
3fcf95c8058240406,
17d727c8fb7d40405,
57f3ebf2f882413f6,
ff7bbe403c8fd3e801,
280785bf00ffff1c2,
ff7cbfe06e5fc723ff,
fdbfbf603febe401,
300405f301f1bfe04,
1fcc03f5dcfcc1201,
3803e5f00180be403,
f88040c08e080001f9,
f8feffdf6cb71ffc07,
102f21bdc881413cb,
f980c05f2010280e08,
101c01fbfd0280807,
f97d3f1f1df8180c07,
e07cc000401fcc0df7,
fc7c00a070500c0801,
581c0c03028100404,
fd0237808df80ffa01,
602f17f4f882c13ec,
f8fc017b40172b7803,
3803dbf1ddfb81609,
5033d7f4f6818000c,
dcfb7dc0cdb803680a,
4eb7dbf6f681f660b,
da7f01608037c00807,
f70300fec057d413f5,
fcfd3ddef04fd40008,
182409aefafd317f5,
f7034140dd9ee7dbf9,
602417c504fafddb4,
3fef7fba020201a0a,
6ff313b702fc3ea0d,
38101bfdf97fc0deb,
6003de0dc3fb7dbf5,
47db5db5fa80017be,
4fc80e09dd7bf0800,
4fe0160a0482be3f5,
5fd819ee05efc0009,
67bbfff1d7fb81400,
57dff7e806fd7e00b,
f8fd01209d882c13fb,
ff01c100bc2ef00009,
fa81313b0c50240db8,
f68101bfdfa0141006,
fa02bfe0805013fc08,
fe7ec0fecd702813fc,
db7e8140c06fbc13ed,
181c10090203815f6,
1ff00bf40602fe60c,
582b6e09d782ff7f6,
4ff7080bf682bfff3,
f77bffba7fff1359fe,
ff7fbe7f1d77c41000,
b01fe608f700ffe09,
d97c7d7fcdb83b5ffe,
ffea3e409f97f35a09,
da7b7f81801fbbfdff,
f57fc03f1048242e08,
f7833d9f00002bfdfe,
ff007fda60482f0e08,
f77f00c05d46abd9ef,
ff7fffbb604fd3d5b4,
17bb79afffff80fff,
37af17af0cfb81407,
ff06c2be9f683409f2,
ff043e207c5fcfd80b,
236bac047f825b1,
fe7bbfffed5fbb1dfe,
fffbffa15ff057d809,
40200def03eb7fbff,
47c803ebd87c7fbf9,
ff02bd9f30402bdc0b,
f582ffffed87fbf9f7,
905ff217c36fffa00,
4ffb0fb3c600003af,
f68040def0500bfe01,
501c02160affbf803,
f6fac33f0d68241403,
d87bbf80703fb7fdee,
fe05401ffff01c0009,
ff80ff80b038241607,
fd8235ffedb027e609,
37eb2bf0f800405f2,
f8fcff7a004eff800b,
fe7ffe7f0defcc09fd,
5817e3f3fa7eff403,
d2fbbe3fdd58034403,
1677e3f2f9fff4406,
d001bf809fd7d017ff,
f7feffdf101fc811f2,
f87c3e5f1fd7c3fffe,
67e817a5f8fc32df3,
f9fec0e05ce6a3e404,
ff7eff9bf017c7e7a8,
fe00f5fbb05ff80dfb,
381f1fba04fcbe005,
fe0140c0af8013f3f2,
fefffe803c8fcbe9f1,
ff7d343aaf9ffc19a9,
fdfc7f3fbdefcf23ff,
101ff409fe01fe1f2,
1fc809ef026fffffe,
27c801edd37cffe04,
fdfc409ed037c3e401,
f9fbffdfbcf7eff801,
fe823fa08ca6c7fffa,
f882b29a0c8feff9b5,
f80040e03f87f7f9fe,
f90140008030281bfc,
201c0ff1cf00407fb,
d180ff606037bffdf0,
ff823f7fc05017f5f1,
5fec1bf00200be005,
fd0174bfed081005f1,
3ffb35f20302c05ee,
401ff39f036eb6e05,
2fefda06dafb41601,
fe027ddef03010060a,
d601c1403d2fff4c04,
1ea7ddf0f700f4007,
d680bf3fd0280c0a00,
4fe8040904fc807ef,
fb7c80809037c7f603,
28180ba1f87cf31f1,
3ff40a07d06940e04,
fc017f5c0057b813ac,
280b6fb8030041004,
18133dbaff027e606,
180001ff0300c0fee,
fd7ffda09cbfb413f3,
fc351a2f8fefffa5,
fc813f607db82339fb,
1807fe00037f809ef,
57cc140904eebf400,
47b80c0ace7b80402,
47c407f003fcc080b,
57c80407d37fbf801,
7f7f7fdcdeb7f606,
f881b39a5d001409b9,
47fc1003f90100601,
f802c0dff010140004,
18040004d402c13f6,
d2017fc060302c0405,
3ff80c030302009f3,
2fd811f10481fe606,
fd01f4602d381ffdf3,
ff0034ffc05fe80bf6,
70280db5ff72f8bfe,
1817ec0de37d7f406,
fdff7ec000580c15fe,
d98441c04da7fb6e05,
26c7ebfefa80b63fc,
d90280bf40103bfc04,
400c040afe7ebedfe,
feff8200a01ff00a00,
ff80bfdabff7f357fa,
5ffbfdfed76d41a0a,
37fc09c8fefd813b5,
2f81c7ff00ff602,
2351c2fc82bfdfe,
1fdfec0b0801ffdf5,
27fbedfcd67d815fe,
17f35fbaff017f5bd,
3c07fde183b5004,
302801f9fffe415ff,
feff7f60ffef180a05,
fffd4040ed97d80bfb,
ff6ff7e823ff,
77f80403dbff80202,
fefe007f9d46f80a01,
ff7f74bb2d301001c7,
581ff607fe0000600,
ff7f405f7fb7f80200,
402bee0cdaff3fbfa,
d880c0200ff82c0c12,
47e3fe03ff7ec07fd,
fffebfffdfe003f800,
ff35e07db7fc03fb,
f882b6df40afa805f6,
c06805c1fd74393fb,
17f7ee17e37e3e201,
f9fcbeded0a01ffbea,
e10543201e2fff8804,
171feff2fc01b7def,
